#ifndef SINE_MODEL_H
#define SINE_MODEL_H


unsigned int sine_model_len = 15900;
unsigned char sine_model[] = {
 0x1c, 0x00, 0x00, 0x00, 0x54, 0x46, 0x4c, 0x33, 0x14, 0x00, 0x20, 0x00,
  0x1c, 0x00, 0x18, 0x00, 0x14, 0x00, 0x10, 0x00, 0x0c, 0x00, 0x00, 0x00,
  0x08, 0x00, 0x04, 0x00, 0x14, 0x00, 0x00, 0x00, 0x1c, 0x00, 0x00, 0x00,
  0x98, 0x00, 0x00, 0x00, 0xf0, 0x00, 0x00, 0x00, 0x64, 0x35, 0x00, 0x00,
  0x74, 0x35, 0x00, 0x00, 0xc8, 0x3d, 0x00, 0x00, 0x03, 0x00, 0x00, 0x00,
  0x01, 0x00, 0x00, 0x00, 0x10, 0x00, 0x00, 0x00, 0x00, 0x00, 0x0a, 0x00,
  0x10, 0x00, 0x0c, 0x00, 0x08, 0x00, 0x04, 0x00, 0x0a, 0x00, 0x00, 0x00,
  0x0c, 0x00, 0x00, 0x00, 0x1c, 0x00, 0x00, 0x00, 0x3c, 0x00, 0x00, 0x00,
  0x0f, 0x00, 0x00, 0x00, 0x73, 0x65, 0x72, 0x76, 0x69, 0x6e, 0x67, 0x5f,
  0x64, 0x65, 0x66, 0x61, 0x75, 0x6c, 0x74, 0x00, 0x01, 0x00, 0x00, 0x00,
  0x04, 0x00, 0x00, 0x00, 0x90, 0xff, 0xff, 0xff, 0x0f, 0x00, 0x00, 0x00,
  0x04, 0x00, 0x00, 0x00, 0x08, 0x00, 0x00, 0x00, 0x6f, 0x75, 0x74, 0x70,
  0x75, 0x74, 0x5f, 0x30, 0x00, 0x00, 0x00, 0x00, 0x01, 0x00, 0x00, 0x00,
  0x04, 0x00, 0x00, 0x00, 0x6a, 0xcb, 0xff, 0xff, 0x04, 0x00, 0x00, 0x00,
  0x0c, 0x00, 0x00, 0x00, 0x6b, 0x65, 0x72, 0x61, 0x73, 0x5f, 0x74, 0x65,
  0x6e, 0x73, 0x6f, 0x72, 0x00, 0x00, 0x00, 0x00, 0x02, 0x00, 0x00, 0x00,
  0x34, 0x00, 0x00, 0x00, 0x04, 0x00, 0x00, 0x00, 0xdc, 0xff, 0xff, 0xff,
  0x12, 0x00, 0x00, 0x00, 0x04, 0x00, 0x00, 0x00, 0x13, 0x00, 0x00, 0x00,
  0x43, 0x4f, 0x4e, 0x56, 0x45, 0x52, 0x53, 0x49, 0x4f, 0x4e, 0x5f, 0x4d,
  0x45, 0x54, 0x41, 0x44, 0x41, 0x54, 0x41, 0x00, 0x08, 0x00, 0x0c, 0x00,
  0x08, 0x00, 0x04, 0x00, 0x08, 0x00, 0x00, 0x00, 0x11, 0x00, 0x00, 0x00,
  0x04, 0x00, 0x00, 0x00, 0x13, 0x00, 0x00, 0x00, 0x6d, 0x69, 0x6e, 0x5f,
  0x72, 0x75, 0x6e, 0x74, 0x69, 0x6d, 0x65, 0x5f, 0x76, 0x65, 0x72, 0x73,
  0x69, 0x6f, 0x6e, 0x00, 0x13, 0x00, 0x00, 0x00, 0x70, 0x34, 0x00, 0x00,
  0x68, 0x34, 0x00, 0x00, 0x18, 0x34, 0x00, 0x00, 0x80, 0x33, 0x00, 0x00,
  0xf0, 0x32, 0x00, 0x00, 0xdc, 0x32, 0x00, 0x00, 0x8c, 0x32, 0x00, 0x00,
  0x7c, 0x2a, 0x00, 0x00, 0x6c, 0x1a, 0x00, 0x00, 0x5c, 0x02, 0x00, 0x00,
  0x8c, 0x01, 0x00, 0x00, 0xbc, 0x00, 0x00, 0x00, 0xb4, 0x00, 0x00, 0x00,
  0xac, 0x00, 0x00, 0x00, 0xa4, 0x00, 0x00, 0x00, 0x9c, 0x00, 0x00, 0x00,
  0x94, 0x00, 0x00, 0x00, 0x74, 0x00, 0x00, 0x00, 0x04, 0x00, 0x00, 0x00,
  0x32, 0xcc, 0xff, 0xff, 0x04, 0x00, 0x00, 0x00, 0x60, 0x00, 0x00, 0x00,
  0x10, 0x00, 0x00, 0x00, 0x00, 0x00, 0x00, 0x00, 0x08, 0x00, 0x0e, 0x00,
  0x08, 0x00, 0x04, 0x00, 0x08, 0x00, 0x00, 0x00, 0x10, 0x00, 0x00, 0x00,
  0x24, 0x00, 0x00, 0x00, 0x00, 0x00, 0x06, 0x00, 0x08, 0x00, 0x04, 0x00,
  0x06, 0x00, 0x00, 0x00, 0x04, 0x00, 0x00, 0x00, 0x00, 0x00, 0x00, 0x00,
  0x0c, 0x00, 0x18, 0x00, 0x14, 0x00, 0x10, 0x00, 0x0c, 0x00, 0x04, 0x00,
  0x0c, 0x00, 0x00, 0x00, 0xcc, 0x0d, 0xa0, 0x96, 0xb9, 0xe8, 0x28, 0x31,
  0x02, 0x00, 0x00, 0x00, 0x02, 0x00, 0x00, 0x00, 0x04, 0x00, 0x00, 0x00,
  0x06, 0x00, 0x00, 0x00, 0x32, 0x2e, 0x32, 0x31, 0x2e, 0x30, 0x00, 0x00,
  0x9e, 0xcc, 0xff, 0xff, 0x04, 0x00, 0x00, 0x00, 0x10, 0x00, 0x00, 0x00,
  0x31, 0x2e, 0x35, 0x2e, 0x30, 0x00, 0x00, 0x00, 0x00, 0x00, 0x00, 0x00,
  0x00, 0x00, 0x00, 0x00, 0x2c, 0xc4, 0xff, 0xff, 0x30, 0xc4, 0xff, 0xff,
  0x34, 0xc4, 0xff, 0xff, 0x38, 0xc4, 0xff, 0xff, 0x3c, 0xc4, 0xff, 0xff,
  0xce, 0xcc, 0xff, 0xff, 0x04, 0x00, 0x00, 0x00, 0xc0, 0x00, 0x00, 0x00,
  0x93, 0xc2, 0xab, 0xbb, 0x20, 0x55, 0x08, 0xbc, 0x27, 0xb4, 0x78, 0x3e,
  0x00, 0x00, 0x00, 0x00, 0x00, 0x00, 0x00, 0x00, 0x27, 0x57, 0xc7, 0xbd,
  0x6f, 0x3f, 0xd4, 0x3d, 0x00, 0x00, 0x00, 0x00, 0xa7, 0xe9, 0x7f, 0x3e,
  0x00, 0x00, 0x00, 0x00, 0x96, 0x53, 0x93, 0xbd, 0x00, 0x00, 0x00, 0x00,
  0xa8, 0x81, 0xcb, 0xbe, 0x36, 0xad, 0xff, 0xbb, 0x00, 0x00, 0x00, 0x00,
  0x17, 0x6c, 0x7f, 0xbe, 0x00, 0x00, 0x00, 0x00, 0xc2, 0x42, 0x1e, 0xbe,
  0xd9, 0x64, 0x6e, 0x3e, 0xa6, 0x32, 0x35, 0x3e, 0x9a, 0xb0, 0xc0, 0x3d,
  0x00, 0x00, 0x00, 0x00, 0x00, 0x00, 0x00, 0x00, 0x7a, 0x4e, 0xe7, 0xb7,
  0xbc, 0x12, 0x13, 0x3e, 0x7f, 0x99, 0x30, 0xbb, 0x00, 0x00, 0x00, 0x00,
  0x00, 0x00, 0x00, 0x00, 0x00, 0x00, 0x00, 0x00, 0x00, 0x00, 0x00, 0x00,
  0x00, 0x00, 0x00, 0x00, 0x00, 0x00, 0x00, 0x00, 0x7d, 0xba, 0x09, 0xbc,
  0x90, 0xa3, 0x99, 0xbe, 0x7e, 0xdd, 0xa0, 0xbe, 0xfb, 0x2b, 0x9b, 0xbe,
  0x00, 0x00, 0x00, 0x00, 0x00, 0x00, 0x00, 0x00, 0x00, 0x00, 0x00, 0x00,
  0x00, 0x00, 0x00, 0x00, 0xc5, 0x21, 0xb1, 0xbe, 0x00, 0x00, 0x00, 0x00,
  0x00, 0x00, 0x00, 0x00, 0x00, 0x00, 0x00, 0x00, 0xbc, 0x97, 0x79, 0x3e,
  0xa0, 0x4f, 0xa1, 0xbe, 0x62, 0x81, 0x92, 0xbe, 0x00, 0x00, 0x00, 0x00,
  0x9a, 0xcd, 0xff, 0xff, 0x04, 0x00, 0x00, 0x00, 0xc0, 0x00, 0x00, 0x00,
  0x3a, 0xe6, 0x32, 0x3e, 0x45, 0x54, 0xc4, 0xbb, 0xa5, 0x42, 0xca, 0xbb,
  0xc0, 0x46, 0x24, 0xbd, 0xdc, 0x96, 0xcf, 0xbd, 0xd2, 0x98, 0x8e, 0x3e,
  0x02, 0xa3, 0x09, 0x3e, 0x6f, 0x04, 0x1d, 0xbe, 0xab, 0x09, 0x1e, 0xbd,
  0x02, 0xc1, 0x44, 0xbe, 0xa0, 0x43, 0x25, 0x3c, 0x8e, 0x84, 0x88, 0xbe,
  0x83, 0xc2, 0x66, 0x3e, 0x7b, 0xc1, 0xf7, 0xba, 0x04, 0x55, 0x51, 0xbe,
  0xe2, 0x17, 0x43, 0x3d, 0xb0, 0xb7, 0x5f, 0xbd, 0xaf, 0xdc, 0x14, 0x3e,
  0x83, 0x8d, 0x36, 0x3e, 0xfa, 0xbf, 0x35, 0xbc, 0xad, 0xbb, 0xcf, 0x3d,
  0xa8, 0xf3, 0x86, 0xbe, 0xd9, 0x1e, 0x95, 0xbe, 0x97, 0xb2, 0x37, 0xbc,
  0x2c, 0xfe, 0xd2, 0x3d, 0x89, 0x46, 0xc0, 0x3d, 0xa4, 0x0a, 0x90, 0xbe,
  0xcc, 0xc6, 0xb8, 0xbd, 0xaa, 0x64, 0xd3, 0xbd, 0x42, 0x0c, 0x97, 0xbe,
  0x90, 0xb5, 0xf2, 0xbc, 0xc1, 0x38, 0x3a, 0xbe, 0x91, 0x54, 0x69, 0x3e,
  0x6e, 0xe1, 0xc8, 0x3d, 0x3a, 0x6d, 0x3b, 0x3e, 0x6c, 0x4a, 0x61, 0x3d,
  0x91, 0x5f, 0x42, 0xbe, 0xf9, 0x28, 0x81, 0xbe, 0x34, 0x49, 0xb7, 0xbd,
  0xa7, 0xe5, 0x2e, 0xbe, 0x1b, 0x34, 0x8e, 0x3d, 0xec, 0xda, 0x85, 0xbd,
  0x9c, 0x8a, 0x05, 0xbe, 0x74, 0xca, 0xba, 0xbd, 0x06, 0x45, 0x18, 0xbd,
  0x67, 0x75, 0x36, 0x3e, 0x9e, 0x07, 0x2b, 0x3e, 0x20, 0x9b, 0xe0, 0xbc,
  0x66, 0xce, 0xff, 0xff, 0x04, 0x00, 0x00, 0x00, 0x00, 0x18, 0x00, 0x00,
  0x5b, 0xd4, 0x5c, 0x3e, 0xbb, 0xe5, 0x6c, 0xbe, 0x3c, 0x33, 0x5f, 0x3e,
  0xea, 0xd7, 0x92, 0xbd, 0xa8, 0x4e, 0xdf, 0x3d, 0x0a, 0x6e, 0x75, 0x3e,
  0x5c, 0x5d, 0x98, 0x3d, 0x5a, 0xcb, 0x85, 0x3e, 0x66, 0xdc, 0x9c, 0xbe,
  0x4c, 0x16, 0x09, 0xbd, 0xee, 0x29, 0x80, 0x3e, 0xdc, 0xe5, 0x45, 0xbe,
  0x57, 0xc2, 0x84, 0x3e, 0xd6, 0x1a, 0x6f, 0xbd, 0xe6, 0xff, 0x53, 0xbe,
  0xd5, 0x12, 0xe7, 0x3c, 0x1a, 0x6d, 0x83, 0xbe, 0xb1, 0x9c, 0x6e, 0xbe,
  0xea, 0x96, 0x1c, 0xbe, 0xdb, 0x87, 0x4b, 0x3e, 0x8c, 0x88, 0x83, 0xbe,
  0x60, 0xc1, 0x3a, 0x3c, 0x7c, 0xe9, 0xaa, 0x3d, 0xb2, 0xa9, 0x36, 0xbe,
  0x57, 0xac, 0xc9, 0xbb, 0x44, 0xc3, 0x70, 0xbd, 0xf6, 0x5f, 0x86, 0x3e,
  0xca, 0xa6, 0x2f, 0xbe, 0xc4, 0xaf, 0x79, 0xbd, 0x20, 0x17, 0xca, 0xbc,
  0x3e, 0x0a, 0x2b, 0x3e, 0x6a, 0x51, 0x1e, 0xbe, 0x3d, 0x04, 0x33, 0xbe,
  0xec, 0x49, 0x7c, 0xbd, 0xfc, 0x97, 0x2c, 0x3e, 0x44, 0x22, 0xa4, 0x3e,
  0x98, 0xfc, 0x98, 0xbd, 0xae, 0x9b, 0x18, 0x3e, 0x20, 0x35, 0x50, 0xbe,
  0x4c, 0x50, 0xfe, 0x3d, 0xcd, 0xdc, 0x08, 0x3f, 0x18, 0x8f, 0xe1, 0xbc,
  0x76, 0xc7, 0x77, 0xbe, 0x2a, 0x8b, 0x5d, 0x3e, 0x91, 0x20, 0x56, 0xbe,
  0xd8, 0x56, 0x2b, 0xbe, 0x91, 0xb9, 0xb3, 0xbd, 0x10, 0x39, 0x24, 0x3d,
  0x2a, 0x36, 0xe1, 0xbe, 0x40, 0x71, 0x47, 0x3e, 0xc9, 0xa4, 0x89, 0x3e,
  0x70, 0x15, 0xe6, 0xbd, 0x95, 0x5a, 0x5e, 0xbe, 0x42, 0x89, 0x8e, 0xbe,
  0x13, 0x4f, 0xac, 0xbe, 0x5e, 0x8e, 0xc2, 0xbd, 0x83, 0xc0, 0xa1, 0x3e,
  0xc8, 0x33, 0xdf, 0xbc, 0x9d, 0x52, 0x0a, 0xbe, 0x4f, 0xe7, 0x26, 0xbe,
  0xcd, 0x01, 0xe1, 0xba, 0xe9, 0x51, 0x80, 0xbe, 0xad, 0xaf, 0x87, 0xbe,
  0xf5, 0x3f, 0xed, 0xbd, 0x74, 0xb9, 0x7e, 0xbd, 0x9f, 0x95, 0x88, 0xbe,
  0x4d, 0x85, 0x2d, 0x3e, 0x82, 0xb8, 0xae, 0xb8, 0x11, 0xcd, 0xfe, 0x3d,
  0x72, 0x1c, 0x41, 0x3e, 0x82, 0x4e, 0x54, 0x3e, 0xe5, 0x03, 0xd0, 0x3d,
  0x34, 0xc6, 0x9f, 0xbd, 0xd6, 0xc1, 0x26, 0x3c, 0xb0, 0x93, 0xde, 0x3c,
  0xf9, 0x0b, 0x82, 0xbe, 0xb2, 0xb2, 0xac, 0xbd, 0x4e, 0xce, 0x15, 0x3e,
  0xe0, 0x30, 0x2b, 0xbe, 0x93, 0x7e, 0x13, 0xbe, 0xf8, 0x91, 0xd0, 0xbe,
  0xe8, 0x5e, 0xc5, 0xbd, 0x6c, 0xda, 0x40, 0x3e, 0x71, 0x0d, 0x4c, 0xbe,
  0x8a, 0x52, 0x40, 0x3e, 0x38, 0xde, 0x2a, 0xbd, 0x6a, 0x05, 0x40, 0xbe,
  0xd0, 0xa2, 0x40, 0xbd, 0x12, 0x12, 0x3d, 0x3e, 0xfe, 0xd8, 0x10, 0x3e,
  0x86, 0xac, 0x3a, 0xbe, 0x56, 0xf7, 0x4b, 0x3e, 0x84, 0x43, 0x09, 0x3e,
  0xfe, 0x20, 0x82, 0xbe, 0xaf, 0x20, 0xd5, 0x3d, 0x3e, 0x3f, 0x26, 0x3e,
  0xd5, 0x3c, 0x3f, 0x3e, 0xe9, 0xa7, 0x06, 0x3d, 0x1f, 0x56, 0x54, 0xbc,
  0x46, 0x47, 0x86, 0xbe, 0x70, 0x26, 0x8e, 0xbc, 0x2d, 0xc3, 0x10, 0xbe,
  0x6f, 0x45, 0x3b, 0xbe, 0xc8, 0xc1, 0xd6, 0xbc, 0xa3, 0x98, 0x0a, 0x3e,
  0xa8, 0xfd, 0x53, 0x3e, 0x9b, 0x55, 0xde, 0x3c, 0x20, 0x0d, 0x62, 0x3c,
  0xca, 0x30, 0x5f, 0xbe, 0x23, 0x18, 0x42, 0x3e, 0x60, 0x4b, 0x24, 0x3c,
  0x5c, 0x78, 0x36, 0xbc, 0xe0, 0x00, 0x5e, 0x3e, 0xde, 0x66, 0xbb, 0x3d,
  0x02, 0x92, 0x8a, 0x3d, 0x76, 0x88, 0x70, 0x3d, 0x57, 0x80, 0x8a, 0xbc,
  0xc0, 0x9f, 0x5c, 0xbe, 0x88, 0xfa, 0x45, 0xbe, 0x94, 0x15, 0x2c, 0xbe,
  0x91, 0x90, 0x9a, 0x3d, 0x38, 0x19, 0x1e, 0x3e, 0x98, 0x06, 0x87, 0x3e,
  0x1d, 0x13, 0x05, 0xbe, 0xe0, 0x8f, 0x87, 0x3d, 0xa2, 0x93, 0x53, 0x3e,
  0x5a, 0xf6, 0x95, 0xbd, 0x70, 0x44, 0xb3, 0xbc, 0x44, 0x1c, 0x07, 0xbe,
  0x9a, 0x85, 0xb8, 0xbd, 0xbf, 0xb7, 0x8a, 0xbd, 0x74, 0x52, 0xb4, 0x3c,
  0xe5, 0x54, 0x69, 0xbe, 0xd4, 0x6b, 0x6c, 0xbd, 0xde, 0x2f, 0x84, 0xbe,
  0xa0, 0xf5, 0xd2, 0x3d, 0xc3, 0x7d, 0x80, 0xbe, 0x12, 0x33, 0x22, 0x3e,
  0x4e, 0x94, 0x92, 0xbd, 0xeb, 0xab, 0x00, 0xbe, 0x32, 0x24, 0x65, 0x3d,
  0x66, 0x2e, 0x23, 0xbe, 0x30, 0x3e, 0xa1, 0xbc, 0x27, 0xc5, 0x80, 0xbe,
  0xec, 0x6b, 0x58, 0x3e, 0xdf, 0x36, 0x02, 0x3e, 0x7c, 0x76, 0x52, 0x3d,
  0x34, 0x61, 0x11, 0x3e, 0xf0, 0x01, 0x27, 0x3d, 0x04, 0xcb, 0xff, 0x3d,
  0x15, 0x6c, 0x36, 0xbc, 0xe8, 0x1d, 0x3c, 0xbe, 0x24, 0xd1, 0xff, 0xbd,
  0x84, 0xac, 0xf1, 0x3d, 0xa5, 0x71, 0x98, 0xbb, 0x18, 0x8f, 0x00, 0xbe,
  0x05, 0x17, 0x81, 0xbd, 0x7e, 0xf6, 0x7e, 0xbd, 0x40, 0x35, 0x60, 0xbc,
  0x5b, 0x48, 0x40, 0x3e, 0xb2, 0xfd, 0x3f, 0x3e, 0x9f, 0x57, 0x87, 0xbe,
  0x80, 0xdf, 0x2a, 0xbd, 0x63, 0x2c, 0x39, 0xbc, 0x98, 0x50, 0xe8, 0xbd,
  0x94, 0x23, 0x22, 0xbd, 0x72, 0x33, 0x84, 0x3e, 0xfa, 0x5d, 0xe7, 0xbd,
  0x17, 0x15, 0x2c, 0xbe, 0xab, 0x19, 0x79, 0x3e, 0xc6, 0x81, 0x2c, 0xbe,
  0x00, 0xd0, 0xe8, 0x3c, 0xf8, 0x87, 0x70, 0x3e, 0xc6, 0xd2, 0x21, 0x3e,
  0x9f, 0xa1, 0x6c, 0xbe, 0xf3, 0x4c, 0x5f, 0xbe, 0x7e, 0x9f, 0x07, 0x3e,
  0x0e, 0x01, 0x2e, 0xbd, 0xbe, 0x60, 0x23, 0x3d, 0xfc, 0x7d, 0x54, 0xbe,
  0xd4, 0x8b, 0x83, 0x3d, 0x8c, 0x3e, 0xbc, 0x3d, 0x92, 0x8d, 0x85, 0x3e,
  0x88, 0xe6, 0x2f, 0x3e, 0xc7, 0xf3, 0x21, 0x3e, 0xb8, 0x30, 0xc5, 0xbc,
  0xda, 0xa0, 0xdb, 0xbd, 0x21, 0x05, 0x0b, 0xbe, 0xad, 0xac, 0x87, 0xbe,
  0xd9, 0xd1, 0x69, 0xbe, 0xfb, 0x14, 0x68, 0x3d, 0x20, 0x4e, 0x90, 0x3c,
  0x18, 0xff, 0x46, 0xbe, 0x1f, 0x27, 0x80, 0xbe, 0xff, 0x6c, 0x01, 0xbd,
  0x56, 0x8d, 0x53, 0x3e, 0x55, 0x93, 0x72, 0xbe, 0xb7, 0x26, 0x07, 0x3e,
  0x78, 0x4c, 0xa1, 0xbd, 0xec, 0x26, 0x02, 0xbd, 0x19, 0x2b, 0x3b, 0xbe,
  0x8a, 0xf5, 0xf1, 0xbd, 0x95, 0xc6, 0x8d, 0x3e, 0x71, 0x6c, 0x59, 0xbe,
  0xec, 0x18, 0x91, 0x3e, 0x09, 0x15, 0xb2, 0x3c, 0x74, 0x2e, 0xce, 0x3d,
  0xdc, 0x8e, 0x65, 0x3e, 0x90, 0x00, 0xd6, 0x3c, 0x34, 0x84, 0xf4, 0x3d,
  0x04, 0x34, 0x05, 0xbe, 0x3f, 0x04, 0x57, 0x3d, 0x46, 0x1c, 0x59, 0xbd,
  0x6c, 0x1b, 0x88, 0xbe, 0x26, 0x19, 0xe8, 0xbd, 0xbb, 0x4a, 0x63, 0xbe,
  0x5b, 0x0e, 0x1f, 0xbe, 0x6e, 0x06, 0x5a, 0x3e, 0x84, 0xdb, 0x2e, 0xbd,
  0x8c, 0x70, 0xfc, 0x3d, 0x76, 0xff, 0xd0, 0xbd, 0xd0, 0xdb, 0x40, 0x3e,
  0xa0, 0x4b, 0x5f, 0xbc, 0x96, 0x8f, 0x09, 0x3e, 0xe0, 0x68, 0xcb, 0x3d,
  0xa7, 0x7d, 0xd5, 0x3e, 0x5c, 0xd3, 0x4a, 0x3e, 0x6f, 0x78, 0x6f, 0x3e,
  0xcb, 0x51, 0x5b, 0xbe, 0xd0, 0x3d, 0x80, 0x3d, 0x60, 0xf6, 0x02, 0x3e,
  0x9a, 0x6c, 0x67, 0xbe, 0x6c, 0x51, 0x95, 0x3e, 0xd2, 0xa6, 0x30, 0x3e,
  0x5a, 0x53, 0x0b, 0xbe, 0x00, 0xeb, 0x86, 0x3e, 0xa5, 0x8d, 0x28, 0xbd,
  0xb5, 0x31, 0x43, 0x3e, 0x70, 0xa7, 0x31, 0x3e, 0xc0, 0xdc, 0xfe, 0x3d,
  0x6e, 0xcb, 0xca, 0xbb, 0x9d, 0x05, 0xd4, 0x3c, 0x7e, 0x0f, 0x29, 0xbe,
  0xf0, 0x56, 0x4b, 0xbe, 0xf6, 0xbd, 0x38, 0x3e, 0x8e, 0x49, 0x04, 0xbe,
  0x4a, 0x37, 0x08, 0x3e, 0x6f, 0x2a, 0x86, 0xbe, 0x25, 0xb3, 0x38, 0xbd,
  0x98, 0xae, 0x85, 0x3d, 0xd0, 0x24, 0xbd, 0xbd, 0x70, 0xa0, 0xeb, 0x3c,
  0xca, 0xc4, 0x76, 0x3e, 0x53, 0x3e, 0x88, 0x3e, 0xcc, 0xa8, 0xac, 0x3d,
  0xc8, 0x4b, 0xdf, 0xbd, 0x48, 0x91, 0x4e, 0x3e, 0xad, 0x54, 0x4d, 0xbe,
  0xc7, 0x45, 0x4b, 0xbe, 0x26, 0x27, 0x95, 0xbe, 0xb5, 0xcc, 0xd0, 0x3c,
  0x30, 0x58, 0xc5, 0x3d, 0x62, 0x91, 0x97, 0xbd, 0xc2, 0xa2, 0x2f, 0xbe,
  0x06, 0x28, 0x7b, 0xbe, 0xdb, 0xf4, 0x20, 0x3e, 0xa8, 0xac, 0x82, 0x3e,
  0xb8, 0xad, 0x70, 0x3d, 0x3d, 0x5a, 0x87, 0xbe, 0x84, 0xa3, 0x6c, 0x3e,
  0x4c, 0xae, 0xed, 0xbd, 0xc8, 0x8b, 0x48, 0xbe, 0x2e, 0x53, 0xba, 0x3c,
  0xde, 0x2b, 0x0e, 0x3e, 0x91, 0x14, 0x46, 0x3e, 0xfb, 0xe0, 0x60, 0xbe,
  0x5c, 0xce, 0xf3, 0x3d, 0x18, 0xd1, 0x30, 0x3d, 0xb8, 0x21, 0xb9, 0xbd,
  0x80, 0xfd, 0x55, 0x3d, 0xc7, 0xac, 0x62, 0x3e, 0x33, 0xa7, 0x16, 0xbe,
  0x80, 0x66, 0x60, 0x3d, 0x46, 0xab, 0xd9, 0xbd, 0x64, 0x61, 0xa1, 0xbd,
  0x58, 0x15, 0x15, 0xba, 0x77, 0xba, 0xb5, 0xbc, 0xde, 0x39, 0x48, 0x3e,
  0x85, 0x8e, 0x70, 0xbe, 0xd8, 0x33, 0x61, 0xbe, 0xc4, 0x55, 0x30, 0xbe,
  0x2c, 0xa9, 0xca, 0xbd, 0x40, 0x95, 0x44, 0x3e, 0x38, 0x51, 0x5d, 0x3e,
  0x1c, 0x12, 0x97, 0xbc, 0xf2, 0x7b, 0x10, 0x3e, 0x0d, 0x95, 0x40, 0x3e,
  0x4f, 0xfa, 0x7e, 0xbe, 0x35, 0x09, 0x7d, 0x3b, 0x4c, 0xa2, 0x9b, 0x3d,
  0x93, 0xf9, 0x97, 0x3e, 0x8b, 0x3c, 0x60, 0x3d, 0x0b, 0x7f, 0x25, 0xbe,
  0x52, 0xa4, 0x95, 0xbd, 0xf3, 0xab, 0x17, 0xbe, 0x75, 0x12, 0x7c, 0xbc,
  0xc8, 0x3e, 0xc6, 0x3d, 0x61, 0x9f, 0x79, 0x3e, 0xa8, 0x8f, 0xe9, 0xbc,
  0x44, 0xb5, 0x64, 0xbe, 0xc0, 0x06, 0x85, 0x3d, 0x16, 0x5c, 0x13, 0xbe,
  0x93, 0x01, 0x28, 0x3e, 0xab, 0x70, 0xf9, 0x3d, 0x64, 0x87, 0x26, 0x3e,
  0xe2, 0x43, 0x28, 0xbe, 0x12, 0xe0, 0xd8, 0xbd, 0x64, 0x96, 0x14, 0xbe,
  0xec, 0xf9, 0xc2, 0x3d, 0xc0, 0x28, 0xbc, 0x3c, 0xc3, 0xde, 0x2c, 0x3e,
  0xeb, 0xcf, 0xb6, 0x3d, 0xe5, 0xc4, 0x55, 0x3e, 0x91, 0x3b, 0xd9, 0x3d,
  0x00, 0x6c, 0x9e, 0xb9, 0x70, 0x3d, 0x2f, 0xbe, 0xe3, 0xe7, 0x35, 0xbe,
  0x2c, 0xcf, 0x5b, 0xbd, 0xf3, 0x69, 0xdd, 0x3d, 0x08, 0x60, 0x00, 0x3d,
  0x8c, 0x89, 0xc5, 0xbd, 0x38, 0xd7, 0x56, 0xbd, 0xb5, 0x1c, 0x63, 0xbe,
  0x94, 0x97, 0x32, 0x3e, 0x9f, 0xc8, 0xce, 0x3d, 0xfe, 0x53, 0x34, 0x3e,
  0x10, 0x0b, 0x45, 0xbd, 0x08, 0x40, 0xf9, 0xbc, 0x10, 0xf1, 0x7a, 0xbe,
  0xbc, 0x2b, 0xbe, 0x3d, 0x5e, 0xff, 0x57, 0x3e, 0x6e, 0xae, 0x4a, 0x3e,
  0x5a, 0x3e, 0x11, 0xbe, 0x40, 0x21, 0x37, 0x3c, 0xce, 0x42, 0xed, 0xbd,
  0x86, 0x4c, 0x7a, 0xbe, 0x39, 0x36, 0x11, 0xbe, 0x2c, 0x56, 0xd1, 0x3d,
  0xb7, 0xa3, 0x0d, 0xbe, 0xa0, 0x1a, 0xb2, 0xbc, 0xe0, 0x8e, 0x19, 0xbc,
  0x8c, 0x7f, 0x33, 0x3e, 0x74, 0xa0, 0x8b, 0x3e, 0x40, 0x79, 0x03, 0xbc,
  0x6e, 0x3d, 0x30, 0xbe, 0x10, 0x14, 0x0e, 0x3d, 0x10, 0x7f, 0x43, 0xbd,
  0x3c, 0xee, 0x33, 0xbe, 0x66, 0x2a, 0x2a, 0x3e, 0x62, 0x67, 0x28, 0x3e,
  0x28, 0x2f, 0x15, 0x3e, 0x08, 0x51, 0x6b, 0x3e, 0xf0, 0x73, 0xa0, 0xbc,
  0x74, 0xaf, 0x5d, 0xbe, 0xb0, 0xe9, 0x47, 0x3d, 0xb3, 0xb4, 0x49, 0xbe,
  0x80, 0x8e, 0x2e, 0x3c, 0x87, 0xfd, 0x84, 0xbe, 0xd8, 0x02, 0xe5, 0xbc,
  0x07, 0x15, 0x05, 0xbe, 0xaf, 0xb3, 0x39, 0xbe, 0xe0, 0xc7, 0x29, 0xbe,
  0xed, 0x76, 0x06, 0xbe, 0x24, 0x2e, 0x31, 0xbd, 0xb0, 0xc8, 0xf0, 0xbc,
  0x80, 0xb3, 0xac, 0xbb, 0x80, 0x05, 0x49, 0x3e, 0x90, 0x1e, 0xe0, 0x3d,
  0x2e, 0x22, 0x43, 0x3e, 0x0a, 0x18, 0x42, 0x3e, 0xe2, 0x40, 0x63, 0xbe,
  0x47, 0xa2, 0x0f, 0xbe, 0x2c, 0x97, 0x32, 0xbe, 0x52, 0x8f, 0x49, 0xbe,
  0xb2, 0x8b, 0x49, 0x3e, 0x1c, 0xed, 0x4f, 0x3e, 0xc8, 0x14, 0x69, 0x3e,
  0xb0, 0x8e, 0xd9, 0xbd, 0x68, 0xd1, 0x8b, 0xbe, 0x00, 0xfe, 0xff, 0x3d,
  0xad, 0x3f, 0xcc, 0xbc, 0xc0, 0x05, 0x62, 0x3d, 0x36, 0xc9, 0xa9, 0x3d,
  0x25, 0xb9, 0x0b, 0xbe, 0x73, 0x1a, 0xad, 0x3d, 0x64, 0x7d, 0x81, 0x3e,
  0xa6, 0x85, 0x80, 0x3d, 0xc7, 0x1c, 0x33, 0x3b, 0x32, 0x17, 0xb6, 0xbd,
  0x85, 0x1d, 0x46, 0x3e, 0xe6, 0x9f, 0xf4, 0xbd, 0xe4, 0x52, 0xfb, 0x3d,
  0x6d, 0xd7, 0x8f, 0xbd, 0xc3, 0x52, 0xea, 0x3d, 0x3a, 0x76, 0x68, 0x3e,
  0x25, 0x89, 0x81, 0xbe, 0x60, 0x70, 0xbe, 0xbc, 0xa8, 0x00, 0x80, 0xbd,
  0xd5, 0x2d, 0xb5, 0x3d, 0x61, 0xbe, 0x29, 0xbe, 0x32, 0xd0, 0x8b, 0x3e,
  0x20, 0xd7, 0xe2, 0xbd, 0x4e, 0x74, 0x52, 0xbe, 0x2c, 0xd4, 0xa0, 0xbd,
  0x2a, 0xbe, 0xac, 0xbd, 0x1e, 0x8b, 0x4a, 0x3e, 0xde, 0x4d, 0xd4, 0x3c,
  0x4b, 0x06, 0xdf, 0xbe, 0xba, 0x85, 0xac, 0xbe, 0x89, 0xe4, 0x86, 0xbe,
  0x54, 0xfb, 0x2f, 0xbe, 0xa0, 0x0f, 0x14, 0x3d, 0x28, 0x99, 0x41, 0xbd,
  0x56, 0x39, 0x44, 0x3e, 0x58, 0xea, 0x03, 0xbf, 0x2e, 0x3f, 0x1f, 0x3e,
  0xcb, 0xb9, 0x88, 0xbe, 0xfb, 0xb5, 0x15, 0xbe, 0xb5, 0xf6, 0x84, 0xbd,
  0x91, 0xf4, 0x5e, 0xbe, 0xf7, 0xea, 0x67, 0xbe, 0x49, 0xc4, 0x07, 0xbe,
  0x0b, 0x20, 0x50, 0x3e, 0x1e, 0xf5, 0x47, 0x3d, 0xc0, 0x63, 0x87, 0xbd,
  0xe5, 0x5e, 0x02, 0xbe, 0x5e, 0x7d, 0x86, 0x3e, 0x8c, 0x6f, 0x4f, 0xbd,
  0x14, 0xea, 0x9e, 0xbd, 0x8c, 0xc4, 0x00, 0xbe, 0xf4, 0x2d, 0x15, 0xbe,
  0x26, 0x98, 0x13, 0x3e, 0xaa, 0xa8, 0x32, 0xbd, 0x88, 0x4b, 0x3f, 0x3e,
  0x4d, 0x9e, 0x04, 0xbe, 0x05, 0xa1, 0x41, 0x3a, 0x42, 0x96, 0x16, 0x3e,
  0xb0, 0x50, 0x2f, 0xbe, 0xd8, 0x2c, 0x86, 0xbd, 0xba, 0xf0, 0xf6, 0x3d,
  0x05, 0xa5, 0x2c, 0xbe, 0x7f, 0x03, 0x05, 0x3e, 0xb4, 0xd0, 0x48, 0x3c,
  0x14, 0x83, 0x7f, 0xbd, 0x38, 0x3b, 0x4a, 0xbd, 0x20, 0xd8, 0x53, 0xbe,
  0x32, 0x7e, 0x0a, 0x3d, 0x6e, 0xde, 0x62, 0xbe, 0x74, 0x8b, 0x36, 0xbe,
  0x94, 0x43, 0x1d, 0xbe, 0x5c, 0x98, 0x51, 0xbe, 0x3c, 0xf8, 0xc8, 0x3d,
  0xc8, 0x5f, 0x86, 0x3e, 0xb8, 0x0c, 0xed, 0x3d, 0xf0, 0xd7, 0x28, 0x3e,
  0x89, 0xe3, 0xe1, 0xbd, 0x3a, 0x87, 0xd3, 0xbd, 0xb1, 0x01, 0xd3, 0xbc,
  0x8d, 0xd5, 0x68, 0xbe, 0x00, 0x30, 0x4d, 0x3e, 0xd1, 0x93, 0x82, 0xbe,
  0xe8, 0x22, 0x64, 0x3e, 0x0f, 0x88, 0x41, 0xbe, 0x60, 0x69, 0x5b, 0x3e,
  0x6d, 0x5f, 0x34, 0xbe, 0xbe, 0xe0, 0x7d, 0xbe, 0xfc, 0x52, 0xd3, 0x3d,
  0x32, 0x78, 0x1b, 0x3d, 0xc7, 0x57, 0x57, 0x3e, 0xf8, 0x89, 0x27, 0x3d,
  0x7c, 0x0e, 0x35, 0x3c, 0x92, 0x33, 0x4c, 0x3e, 0xfa, 0x70, 0x4a, 0xbe,
  0xfc, 0x24, 0x09, 0x3e, 0x4a, 0x12, 0x44, 0xbe, 0x18, 0x7e, 0x1f, 0x3d,
  0x55, 0xa6, 0x38, 0xbe, 0xc2, 0xa9, 0x89, 0x3e, 0x40, 0x9a, 0x38, 0x3e,
  0xd8, 0x8c, 0x27, 0x3d, 0x78, 0x90, 0x7d, 0xbd, 0x76, 0xc7, 0x9d, 0xbd,
  0x72, 0x95, 0x8c, 0xbe, 0x7a, 0x1d, 0x7e, 0x3d, 0xe2, 0x41, 0x15, 0x3e,
  0xef, 0x76, 0x30, 0xbd, 0xd7, 0xd4, 0x3b, 0xbe, 0x33, 0x2d, 0x01, 0x3e,
  0x36, 0xdb, 0x88, 0x3e, 0xb4, 0xaf, 0x50, 0x3e, 0x44, 0xaf, 0xf6, 0xbc,
  0x48, 0x8c, 0x29, 0x3d, 0xb6, 0x94, 0x3c, 0xbe, 0x14, 0xac, 0x90, 0x3e,
  0x45, 0x4d, 0x79, 0xbd, 0x69, 0x7f, 0x03, 0x3e, 0x16, 0x2b, 0xcb, 0xbd,
  0xa0, 0x62, 0x89, 0x3e, 0x00, 0x98, 0x71, 0x3d, 0x2c, 0x3e, 0xc9, 0x3d,
  0x68, 0x7b, 0xd2, 0xbd, 0x00, 0x61, 0xf3, 0xba, 0x1e, 0x74, 0xb4, 0xbd,
  0x47, 0xb1, 0xf9, 0xbe, 0x9a, 0x0f, 0xff, 0xbd, 0x6b, 0x91, 0xbb, 0xbe,
  0x10, 0x56, 0x95, 0xbc, 0xd4, 0x90, 0x76, 0x3e, 0x4e, 0x2b, 0xc5, 0xbd,
  0x20, 0xa1, 0xa5, 0x3d, 0x83, 0xca, 0x43, 0xbd, 0x58, 0xff, 0x21, 0xbe,
  0xd0, 0x98, 0xbf, 0xbc, 0x78, 0x45, 0x22, 0x3e, 0x7b, 0x3a, 0x27, 0x3e,
  0x73, 0xc5, 0xb9, 0xbe, 0x95, 0x43, 0xb1, 0xbd, 0xb0, 0x6e, 0xfa, 0x3d,
  0xc0, 0xa4, 0x26, 0x3c, 0xb2, 0x90, 0xe3, 0xbd, 0x00, 0x37, 0xda, 0x3a,
  0x60, 0x03, 0xfb, 0xbc, 0x08, 0x61, 0xb7, 0xbd, 0x48, 0x93, 0x88, 0xbe,
  0x70, 0x6e, 0xc4, 0x3c, 0x11, 0x72, 0x89, 0xbe, 0x38, 0x56, 0x6d, 0x3e,
  0xbe, 0xd6, 0x2c, 0xbe, 0xf8, 0x82, 0x30, 0xbd, 0x12, 0x88, 0xf4, 0xbd,
  0xa1, 0xb1, 0x35, 0xbe, 0xa4, 0x06, 0x39, 0xbd, 0x00, 0x4f, 0xab, 0xbb,
  0x4e, 0xf3, 0x4c, 0xbe, 0xd4, 0x43, 0x88, 0x3d, 0x54, 0xf4, 0x89, 0x3d,
  0xc2, 0xa1, 0x80, 0xbe, 0x98, 0xfc, 0xe8, 0xbd, 0x98, 0xd9, 0xc0, 0xbd,
  0xf8, 0xf0, 0x21, 0xbe, 0x9b, 0xc4, 0x12, 0xbe, 0xf8, 0x56, 0x2c, 0x3e,
  0xd4, 0x37, 0x20, 0xbe, 0xfe, 0xae, 0x50, 0x3e, 0xa6, 0x8c, 0x02, 0x3e,
  0x62, 0xfd, 0x14, 0x3e, 0xe8, 0x69, 0x16, 0xbe, 0x58, 0x4a, 0xe4, 0x3d,
  0x3c, 0x9f, 0x73, 0x3e, 0x90, 0xcb, 0xd7, 0xbc, 0xe3, 0xb1, 0x67, 0xbe,
  0xac, 0xab, 0x94, 0x3d, 0xd8, 0x37, 0x20, 0x3e, 0xfa, 0xd1, 0xe3, 0xbd,
  0x9c, 0x03, 0x1a, 0xbd, 0x10, 0xbc, 0x95, 0xbc, 0xd8, 0xd4, 0x5b, 0x3d,
  0x36, 0x56, 0x65, 0xbe, 0x48, 0x9a, 0xbe, 0x3d, 0xfc, 0x12, 0x19, 0x3e,
  0xf5, 0x76, 0x11, 0xbe, 0x40, 0x6b, 0x30, 0xbc, 0x50, 0x1b, 0x22, 0xbe,
  0xb8, 0x29, 0x0e, 0x3e, 0x40, 0xe3, 0xd4, 0xbd, 0xe8, 0xfb, 0x35, 0xbd,
  0x92, 0x2a, 0x36, 0x3c, 0xd6, 0xdf, 0xad, 0x3d, 0x49, 0x6b, 0x9c, 0xbd,
  0xd2, 0xc4, 0x9d, 0xbd, 0x16, 0xa5, 0x80, 0xbe, 0x6c, 0x3f, 0xf2, 0xbd,
  0x4c, 0x73, 0x74, 0x3e, 0xfe, 0x51, 0x36, 0xbe, 0x32, 0xd7, 0xad, 0xbd,
  0x78, 0x3f, 0x63, 0xbd, 0x5d, 0xa2, 0x06, 0x3e, 0xd8, 0x6a, 0xb3, 0x3d,
  0x1d, 0xb2, 0x2b, 0xbe, 0x58, 0x0b, 0x97, 0xbe, 0x18, 0x11, 0x84, 0x3d,
  0xe7, 0xec, 0x97, 0x3d, 0xf2, 0xe9, 0x93, 0xbd, 0xcb, 0xe3, 0x6f, 0xbe,
  0x15, 0xd0, 0x14, 0x3e, 0xa8, 0xe7, 0x0a, 0x3e, 0xb2, 0xa4, 0x5c, 0x3e,
  0xdd, 0x7d, 0x6c, 0xbe, 0x24, 0x60, 0x69, 0xbd, 0x33, 0xe2, 0x82, 0xbb,
  0xf6, 0x23, 0x15, 0xbe, 0x97, 0x46, 0x19, 0x3e, 0xc4, 0xbc, 0x61, 0xbd,
  0xca, 0x11, 0x4d, 0x3e, 0x48, 0x1e, 0xc7, 0x3d, 0x7c, 0x21, 0x6f, 0x3e,
  0x96, 0xa2, 0x56, 0xbe, 0xf2, 0x95, 0x1f, 0xbe, 0xbe, 0x12, 0x8a, 0xbe,
  0xe9, 0x2b, 0xa2, 0xbd, 0x72, 0xc8, 0xac, 0x3d, 0x28, 0xcf, 0x1f, 0x3e,
  0xc5, 0x0a, 0x34, 0xbe, 0x19, 0x42, 0x84, 0xbe, 0x80, 0x3a, 0x08, 0xbb,
  0x20, 0x4a, 0x7d, 0x3c, 0x6e, 0x38, 0x7c, 0xbe, 0xd0, 0x9f, 0x3b, 0x3e,
  0x39, 0x09, 0x63, 0xbe, 0x70, 0x44, 0x1a, 0x3e, 0xdf, 0x79, 0x41, 0xbd,
  0x95, 0x7a, 0x75, 0xbd, 0xf1, 0x15, 0x24, 0xbc, 0x98, 0x1f, 0x61, 0xbe,
  0xce, 0xd2, 0x40, 0x3d, 0x28, 0x38, 0x8b, 0xbd, 0x1c, 0x36, 0x84, 0xbe,
  0x96, 0xf5, 0x86, 0xbe, 0x00, 0xe0, 0x80, 0xbd, 0x8d, 0x8e, 0xe8, 0x3a,
  0xdd, 0xf7, 0xe2, 0x3d, 0x8a, 0xfd, 0x57, 0x3e, 0x6e, 0x18, 0xa5, 0x3c,
  0xcc, 0x17, 0x8e, 0x3d, 0x10, 0x63, 0xaa, 0xbd, 0xe4, 0x0f, 0x25, 0xbe,
  0xc3, 0xe3, 0xab, 0x3e, 0x9b, 0x07, 0x83, 0x3d, 0xe8, 0xc4, 0x83, 0x3d,
  0xce, 0x54, 0x38, 0xbe, 0x80, 0x58, 0xe1, 0x3d, 0x3f, 0xaa, 0x92, 0x3e,
  0xa0, 0xe5, 0x20, 0xbe, 0x98, 0x38, 0x30, 0xbe, 0xc7, 0x87, 0x29, 0x3e,
  0x10, 0xa3, 0x69, 0x3e, 0xd8, 0xec, 0x34, 0x3e, 0xe6, 0x89, 0x25, 0xba,
  0xe7, 0x8e, 0xed, 0x3d, 0x5a, 0x08, 0x3e, 0xbe, 0x9a, 0xf9, 0x2f, 0x3e,
  0x78, 0xe2, 0x28, 0x3d, 0x67, 0xf8, 0x46, 0xbe, 0x4e, 0x81, 0x3a, 0xbe,
  0x26, 0x02, 0x10, 0x3e, 0x8a, 0xda, 0x19, 0x3e, 0x2c, 0xa7, 0x97, 0x3e,
  0x31, 0x71, 0xc4, 0x3e, 0x3c, 0xbe, 0x93, 0x3e, 0x33, 0xfb, 0x61, 0x3e,
  0x86, 0x50, 0xab, 0xbd, 0xdf, 0xd0, 0x85, 0xbe, 0x8b, 0x72, 0x15, 0xbe,
  0xf2, 0xa3, 0x82, 0x3e, 0xb3, 0x28, 0x1b, 0x3f, 0x84, 0xf7, 0x27, 0xbd,
  0x2e, 0x00, 0x03, 0xbe, 0x83, 0xef, 0x85, 0xbe, 0xaa, 0x0c, 0x92, 0xbe,
  0x1b, 0xfa, 0xa1, 0x3e, 0xe9, 0xd7, 0x85, 0x3d, 0xee, 0x88, 0x1d, 0x3e,
  0x82, 0xd8, 0x51, 0x3e, 0x98, 0x8d, 0x74, 0xbe, 0x82, 0xf6, 0xa5, 0xbc,
  0x00, 0x57, 0xe9, 0x3d, 0x18, 0xcb, 0x93, 0x3d, 0x22, 0xae, 0x57, 0x3e,
  0x35, 0xb5, 0x22, 0x3e, 0xfe, 0xc5, 0x03, 0x3e, 0x8d, 0xf7, 0xd8, 0xbd,
  0xae, 0xa9, 0xba, 0xbd, 0x11, 0x31, 0x71, 0xbe, 0x80, 0x35, 0x6b, 0xbb,
  0x35, 0x72, 0xc1, 0xbd, 0xbc, 0xdf, 0xa8, 0x3d, 0x19, 0xbf, 0x86, 0xbe,
  0xec, 0xab, 0x81, 0xbe, 0x20, 0x0e, 0x82, 0x3e, 0x1c, 0x9b, 0xc8, 0xbd,
  0x18, 0xab, 0x15, 0x3d, 0xb4, 0x9a, 0x50, 0x3e, 0x37, 0x4f, 0x68, 0x3e,
  0xb4, 0x2f, 0x41, 0x3e, 0x5f, 0xad, 0x43, 0xbe, 0x61, 0xa0, 0x2c, 0x3d,
  0xdf, 0x2c, 0x61, 0x3d, 0x3c, 0xc6, 0x66, 0x3e, 0x06, 0x6e, 0x26, 0x3e,
  0xb0, 0x01, 0xff, 0xbd, 0xb5, 0xf8, 0x25, 0xbe, 0x10, 0xe0, 0x00, 0x3d,
  0x48, 0xdd, 0x8a, 0x3e, 0x18, 0x17, 0x87, 0x3d, 0x7c, 0xf5, 0x0e, 0x3e,
  0x61, 0x73, 0x1d, 0xbf, 0x90, 0x78, 0xa2, 0xbe, 0x4b, 0xe2, 0xa9, 0xbe,
  0xd1, 0xe9, 0x68, 0xbe, 0x74, 0x22, 0xc3, 0x3d, 0xfe, 0x07, 0x8d, 0xbd,
  0x20, 0xc3, 0x8d, 0x3c, 0x01, 0x65, 0x6a, 0xbf, 0x3e, 0x52, 0x84, 0x3e,
  0x98, 0xce, 0x0f, 0x3e, 0x1a, 0xca, 0x5b, 0xbe, 0x31, 0x02, 0x9c, 0xbd,
  0x09, 0x43, 0x07, 0xbe, 0x17, 0x37, 0x48, 0xbe, 0xf2, 0xa0, 0xf5, 0xbd,
  0xaa, 0x8b, 0xbe, 0x3d, 0x15, 0x3c, 0x87, 0x3d, 0xad, 0x35, 0x23, 0xbd,
  0x9a, 0x19, 0x76, 0xbe, 0xd0, 0xe1, 0x20, 0x3e, 0xe2, 0x8d, 0x79, 0xbd,
  0x88, 0x9f, 0x44, 0x3e, 0x76, 0xfe, 0x92, 0xbd, 0xc3, 0xa7, 0x2b, 0x3e,
  0x2c, 0x0e, 0x3d, 0x3e, 0x1f, 0xc0, 0x3a, 0x3e, 0xea, 0x49, 0x0e, 0xbe,
  0x1d, 0x7c, 0x98, 0xbe, 0xf6, 0xad, 0x4f, 0x3e, 0x00, 0xd8, 0x76, 0x3e,
  0x59, 0x4e, 0x30, 0x3e, 0xc0, 0x7b, 0x22, 0x3d, 0x61, 0xa0, 0x15, 0x3e,
  0xf5, 0xac, 0x30, 0xbd, 0x61, 0x53, 0x70, 0x3c, 0x28, 0x72, 0xb3, 0xbd,
  0x04, 0x3e, 0x12, 0x3e, 0x3c, 0x60, 0x0e, 0xbe, 0xed, 0xf3, 0x57, 0xbe,
  0x1e, 0x7f, 0x0e, 0xbe, 0x30, 0x66, 0x38, 0xbc, 0x3c, 0x36, 0x22, 0x3e,
  0x3a, 0xc5, 0x03, 0x3e, 0x5d, 0x14, 0x48, 0xbe, 0x58, 0x5a, 0x45, 0xbd,
  0xb0, 0x38, 0x16, 0x3d, 0xec, 0x85, 0x9b, 0xbd, 0x0a, 0x64, 0x5a, 0x3e,
  0x50, 0x29, 0xad, 0xbe, 0x98, 0x0e, 0x7e, 0x3c, 0xb6, 0xeb, 0x0e, 0x3d,
  0xf8, 0x1b, 0x87, 0x3e, 0xc8, 0xaa, 0xb6, 0x3d, 0x72, 0x13, 0x86, 0xbe,
  0x5c, 0x54, 0x73, 0x3e, 0xcf, 0x85, 0x08, 0xbf, 0x69, 0xbd, 0x30, 0xbe,
  0x2c, 0xde, 0xb0, 0x3d, 0x8c, 0xcf, 0xb1, 0x3d, 0xa5, 0x03, 0x5d, 0xbe,
  0xef, 0xc5, 0x79, 0xbe, 0x82, 0x49, 0x75, 0xbc, 0x14, 0xb4, 0xd0, 0x3d,
  0xd2, 0xff, 0x96, 0xb9, 0x32, 0xcf, 0x32, 0xbe, 0xfd, 0x2a, 0x30, 0x3e,
  0x20, 0x4a, 0x96, 0xbd, 0x08, 0xf3, 0x54, 0xbd, 0x4e, 0x9d, 0x6c, 0x3d,
  0xa6, 0x3a, 0xeb, 0xba, 0xf4, 0x93, 0xef, 0x3d, 0x6d, 0xf2, 0x77, 0xbe,
  0xe6, 0xe6, 0x67, 0xbe, 0x61, 0x68, 0x1d, 0xbe, 0x90, 0xef, 0xc7, 0x3c,
  0xe2, 0xbc, 0x07, 0x3e, 0x7e, 0x19, 0x1a, 0xbd, 0x9a, 0x17, 0x37, 0x3e,
  0x3a, 0x02, 0x89, 0xbe, 0x8c, 0x9b, 0x90, 0x3d, 0x89, 0x03, 0x8b, 0xbd,
  0xa2, 0xdb, 0x6c, 0xbe, 0x4f, 0x88, 0x8d, 0x3d, 0xcb, 0x91, 0x09, 0xbe,
  0xae, 0x92, 0xad, 0xbd, 0x26, 0xb9, 0x41, 0x3e, 0x67, 0xe1, 0x27, 0x3e,
  0x70, 0x41, 0x60, 0x3e, 0x71, 0xbc, 0xc0, 0x3d, 0x80, 0x04, 0xde, 0x3c,
  0x8e, 0x89, 0x48, 0x3e, 0x48, 0x6b, 0x67, 0x3e, 0x84, 0x20, 0x8b, 0x3d,
  0x90, 0x74, 0xab, 0x3c, 0xf2, 0x9b, 0x80, 0xbe, 0xb1, 0x62, 0xcc, 0x3c,
  0x2b, 0xa3, 0x3a, 0x3d, 0xb3, 0x1b, 0x8a, 0xbe, 0xe2, 0x3a, 0x4c, 0xbe,
  0x80, 0xf3, 0xfb, 0xbd, 0x78, 0x99, 0xb8, 0x3d, 0x54, 0x15, 0x36, 0x3e,
  0xf6, 0x26, 0xcd, 0xbd, 0x81, 0x59, 0x27, 0x3e, 0x2c, 0xfd, 0x32, 0x3e,
  0xa0, 0xdc, 0x84, 0x3c, 0x60, 0xea, 0x07, 0xbc, 0x30, 0xbf, 0x21, 0xbd,
  0xb9, 0x90, 0x61, 0xbe, 0x4b, 0xf8, 0x03, 0x3e, 0xec, 0x13, 0x2a, 0x3e,
  0x0f, 0x2d, 0x13, 0x3e, 0x30, 0x6c, 0x18, 0x3e, 0xdb, 0x4a, 0x97, 0xbd,
  0xb8, 0x68, 0x19, 0x3e, 0x16, 0x4d, 0x03, 0x3e, 0x2a, 0x04, 0xc2, 0x3d,
  0x77, 0x53, 0x55, 0xbe, 0x20, 0x5d, 0x70, 0x3c, 0x86, 0xbc, 0xf3, 0x3d,
  0x84, 0xce, 0x82, 0x3e, 0x1e, 0x20, 0xd3, 0xbd, 0xe0, 0xf8, 0x87, 0xbe,
  0xd6, 0xc4, 0x80, 0xbe, 0x29, 0x84, 0x7e, 0xbd, 0x00, 0x0c, 0xaf, 0xba,
  0xaa, 0xb6, 0x8a, 0xbe, 0x4f, 0xe4, 0x83, 0xbe, 0xff, 0x8a, 0xe0, 0x3d,
  0x54, 0x04, 0x5e, 0xbe, 0xc0, 0x2d, 0x6a, 0x3d, 0xcf, 0x27, 0xb9, 0x3d,
  0x22, 0x23, 0x4c, 0xbe, 0xe0, 0x87, 0x9d, 0xbc, 0x7c, 0x14, 0x24, 0xbe,
  0xdd, 0x2d, 0x3f, 0x3e, 0x86, 0x7b, 0x61, 0xbe, 0x92, 0x02, 0x73, 0xbe,
  0x80, 0x33, 0x3a, 0xbc, 0x7a, 0x7f, 0x07, 0x3e, 0xf8, 0x1c, 0x8e, 0x3d,
  0x00, 0x02, 0x84, 0x3b, 0xa0, 0xa0, 0xb8, 0x3d, 0x56, 0xff, 0x05, 0x3d,
  0x22, 0x08, 0x43, 0x3e, 0xf5, 0xd4, 0x66, 0xbe, 0xc4, 0xc5, 0x13, 0x3e,
  0xa0, 0x46, 0x04, 0xbe, 0xe8, 0x28, 0x58, 0x3d, 0x54, 0xad, 0x7b, 0x3e,
  0x70, 0x1b, 0x3d, 0xbe, 0x08, 0x6b, 0x4b, 0x3e, 0x88, 0xac, 0xa4, 0x3d,
  0x88, 0x3b, 0xf4, 0x3d, 0x60, 0xb2, 0x02, 0x3d, 0xcc, 0xd9, 0x95, 0xbe,
  0x3b, 0xe0, 0x39, 0x3e, 0x0b, 0x3c, 0x04, 0x3d, 0x6c, 0xb0, 0x6c, 0xbd,
  0xb0, 0x86, 0x30, 0x3e, 0x28, 0x57, 0x65, 0xbe, 0x00, 0xf6, 0x84, 0xbe,
  0x68, 0xb8, 0x78, 0x3e, 0xc0, 0xe2, 0xe5, 0xbc, 0x09, 0xe2, 0x1a, 0xbe,
  0x27, 0x0d, 0x0e, 0xbe, 0x70, 0xf1, 0x7b, 0x3e, 0x92, 0x2e, 0x9f, 0xbe,
  0x00, 0xbc, 0xd1, 0xbc, 0x6a, 0xba, 0xd4, 0xbd, 0xb4, 0xaf, 0xbe, 0x3d,
  0x33, 0xe8, 0xc1, 0x3d, 0x75, 0xd9, 0x30, 0xbe, 0xc8, 0x1a, 0x20, 0x3e,
  0x6b, 0xb9, 0x10, 0x3e, 0x1e, 0xf5, 0x5d, 0x3e, 0x15, 0x55, 0xf5, 0x3d,
  0x1d, 0x63, 0x32, 0xbe, 0x83, 0x1e, 0x5f, 0x3d, 0xb1, 0x83, 0x6d, 0x3e,
  0x70, 0xcc, 0xcd, 0x3d, 0x42, 0x3e, 0xb2, 0xbd, 0x90, 0x24, 0xc1, 0x3d,
  0xe7, 0x1a, 0x95, 0xbe, 0xfa, 0x4f, 0x80, 0xbd, 0xa5, 0xce, 0x41, 0xbe,
  0x20, 0x82, 0x12, 0xbd, 0xfe, 0x07, 0x6f, 0xbe, 0x96, 0x15, 0x1f, 0x3e,
  0x78, 0xde, 0x2d, 0x3d, 0xd4, 0xc0, 0x87, 0x3e, 0x89, 0x06, 0x8f, 0x3e,
  0x84, 0x9d, 0xa1, 0x3e, 0x59, 0x95, 0xe0, 0xbc, 0x8c, 0x81, 0x95, 0x3e,
  0x0c, 0xc9, 0xec, 0x3d, 0x58, 0xe7, 0x4e, 0x3e, 0xa4, 0x36, 0xc8, 0x3d,
  0xc0, 0xd3, 0x63, 0x3c, 0xc4, 0x4a, 0xb0, 0x3e, 0x88, 0xb2, 0x12, 0xbe,
  0x58, 0x83, 0x70, 0xbe, 0x22, 0x29, 0xe4, 0xbd, 0xa2, 0xd1, 0x9c, 0xbe,
  0x2d, 0x8f, 0x0a, 0xbe, 0x16, 0x48, 0x8a, 0x3e, 0x22, 0xa2, 0x62, 0x3e,
  0x18, 0x21, 0x0d, 0x3e, 0x3e, 0xc7, 0xa7, 0xba, 0x22, 0x80, 0x7b, 0xbe,
  0xc9, 0x2d, 0x13, 0xbe, 0x98, 0xc9, 0x3f, 0x3e, 0x90, 0x1a, 0x50, 0x3e,
  0xc4, 0x7c, 0x91, 0xbe, 0x32, 0x6f, 0x3e, 0x3e, 0x02, 0x7c, 0x7a, 0xbe,
  0x02, 0xb8, 0x8a, 0x3e, 0x49, 0xb8, 0x3e, 0x3c, 0xa4, 0x66, 0xd5, 0x3d,
  0xc1, 0x29, 0x86, 0x3e, 0x9f, 0xb0, 0x44, 0xbe, 0x1e, 0xe1, 0x71, 0xbe,
  0x1c, 0x1f, 0x76, 0x3e, 0x8b, 0xed, 0x8a, 0xbe, 0x91, 0xa4, 0x19, 0x3e,
  0x4b, 0x38, 0x04, 0xbe, 0xd4, 0xa7, 0xba, 0xbd, 0x87, 0xc7, 0x33, 0xbe,
  0x95, 0xe0, 0x13, 0xbe, 0x40, 0xd3, 0x7f, 0x3e, 0xf9, 0x5e, 0xeb, 0x3d,
  0x0a, 0x0e, 0x07, 0xbe, 0xd2, 0xba, 0x20, 0x3d, 0x28, 0xc8, 0x87, 0x3d,
  0x8e, 0x5d, 0x4e, 0x3e, 0x98, 0x6e, 0x10, 0xbe, 0xc0, 0xa8, 0xca, 0xbb,
  0xba, 0x0a, 0x52, 0x3e, 0xc4, 0xcb, 0xff, 0x3d, 0x80, 0xec, 0x31, 0x3e,
  0x7c, 0x82, 0x01, 0x3f, 0xe6, 0xea, 0xa5, 0x3c, 0x54, 0xfe, 0xa2, 0x3e,
  0x19, 0x1f, 0x52, 0xbe, 0x6a, 0xd8, 0x3b, 0xbe, 0xfc, 0xf8, 0x6a, 0x3e,
  0x36, 0xcd, 0xa5, 0xbd, 0xf4, 0xb6, 0x17, 0x3f, 0x3a, 0x6f, 0x4b, 0x3e,
  0xe0, 0x05, 0x2f, 0x3c, 0xcc, 0x60, 0x5b, 0xbd, 0x44, 0xb6, 0xa5, 0xbe,
  0x3c, 0xf6, 0xbb, 0x3e, 0xec, 0x86, 0x3f, 0xbe, 0x30, 0x3d, 0x88, 0x3d,
  0xae, 0xe2, 0x6c, 0xbd, 0xf4, 0x5c, 0xe6, 0xbd, 0xce, 0x89, 0xc8, 0x3d,
  0x34, 0xe0, 0x1a, 0xbd, 0x04, 0x3c, 0xd6, 0x3d, 0x52, 0xa4, 0xb8, 0x3d,
  0x95, 0x48, 0xa7, 0xbb, 0x4a, 0x9e, 0x48, 0x3e, 0xc5, 0x80, 0x37, 0xbe,
  0xd0, 0x97, 0x40, 0xbe, 0x09, 0xb1, 0xbd, 0x3d, 0xd8, 0xa7, 0x24, 0xbd,
  0xe7, 0x38, 0xea, 0xbd, 0xc0, 0xb2, 0x82, 0x3e, 0x30, 0x80, 0xcd, 0x3c,
  0x7f, 0x41, 0x36, 0xbe, 0x9e, 0xc1, 0x35, 0xbe, 0x10, 0xdc, 0x1a, 0x3e,
  0xcd, 0xe9, 0xa8, 0x3d, 0xec, 0xa6, 0x46, 0xbe, 0xe6, 0xf5, 0x30, 0x3e,
  0x5d, 0x1c, 0x6d, 0xbe, 0xcc, 0x47, 0x48, 0x3e, 0xd8, 0xee, 0x1d, 0x3e,
  0xe6, 0x18, 0x1e, 0xbe, 0xae, 0x72, 0x82, 0xbe, 0xf7, 0xbf, 0x79, 0xbe,
  0x74, 0x7d, 0x57, 0xbe, 0x7e, 0xbf, 0x83, 0x3e, 0xc0, 0x68, 0x43, 0xbe,
  0x44, 0xf1, 0x26, 0x3e, 0xa0, 0xe7, 0x59, 0x3e, 0xd9, 0xc1, 0x83, 0x3e,
  0x94, 0x62, 0xc2, 0x3e, 0xb4, 0xe0, 0x29, 0x3e, 0xed, 0xda, 0xa5, 0x3e,
  0x1e, 0xd0, 0x2e, 0x3e, 0x5c, 0xc7, 0x08, 0x3e, 0x10, 0x9e, 0x40, 0x3e,
  0x8a, 0xd5, 0xfc, 0xbd, 0xb1, 0x4a, 0xac, 0x3e, 0xb6, 0xb5, 0xc5, 0xbd,
  0x3a, 0x63, 0x80, 0xbd, 0x08, 0xe6, 0x6b, 0x3d, 0x74, 0xe7, 0x17, 0xbd,
  0x22, 0x24, 0x5a, 0x3e, 0x12, 0xbb, 0xce, 0x3c, 0xc4, 0x68, 0x46, 0x3e,
  0x91, 0xdf, 0x8d, 0x3e, 0xf1, 0x01, 0x96, 0x3d, 0xbe, 0x3a, 0xc2, 0xbc,
  0x48, 0x7d, 0x31, 0xbd, 0xe2, 0x23, 0x10, 0xbe, 0xf4, 0x88, 0xfe, 0x3d,
  0x37, 0xd8, 0x54, 0xbe, 0xca, 0x15, 0x2e, 0xbe, 0xfb, 0x1c, 0xe8, 0xbd,
  0xa8, 0x4b, 0x38, 0x3e, 0x3c, 0x33, 0x16, 0x3e, 0x80, 0xcd, 0xf1, 0xbb,
  0x7b, 0x8d, 0x11, 0xbe, 0xfb, 0x75, 0x61, 0x3e, 0x2e, 0x62, 0x9b, 0xbd,
  0x89, 0x92, 0x21, 0x3e, 0x01, 0xd4, 0x06, 0xbe, 0xeb, 0xff, 0x3a, 0x3e,
  0xc5, 0x5e, 0x09, 0xbc, 0xd1, 0xef, 0x33, 0xbe, 0x3c, 0x7c, 0x42, 0xbe,
  0x42, 0x99, 0x4c, 0xbe, 0xf6, 0x25, 0x35, 0xbe, 0xf6, 0x9d, 0x8e, 0x3e,
  0x4a, 0x01, 0x82, 0xbd, 0x13, 0xbb, 0xc2, 0x3c, 0x38, 0xa8, 0x30, 0xbe,
  0xd1, 0x0a, 0x28, 0xbe, 0xa4, 0xe6, 0x3f, 0x3e, 0x68, 0x55, 0x98, 0x3d,
  0xa4, 0x29, 0xb3, 0xbd, 0x10, 0x95, 0x9e, 0xbc, 0x6b, 0xa6, 0x92, 0x3e,
  0xd4, 0xd9, 0x3a, 0x3d, 0x92, 0x59, 0xcd, 0x3c, 0x18, 0xcb, 0x10, 0x3e,
  0x94, 0xed, 0x06, 0xbe, 0x18, 0xd2, 0xb3, 0x3d, 0x4a, 0xcc, 0x4d, 0x3e,
  0x80, 0xe9, 0xde, 0x3b, 0x74, 0x4c, 0xa3, 0xbd, 0x04, 0x2d, 0x26, 0xbe,
  0xa0, 0x33, 0x32, 0xbe, 0x20, 0x9a, 0xe1, 0x3d, 0x00, 0x12, 0xe3, 0x3c,
  0xb3, 0x67, 0xe8, 0x3d, 0x2f, 0xef, 0x4d, 0xbd, 0x04, 0xcf, 0xc4, 0xbd,
  0xf4, 0x9e, 0x57, 0x3e, 0x44, 0x1a, 0x01, 0xbe, 0x5e, 0xa3, 0x0f, 0x3e,
  0x6a, 0x17, 0x81, 0xbe, 0xb4, 0x35, 0x07, 0xbe, 0x36, 0x14, 0x39, 0x3d,
  0xc7, 0x7b, 0x43, 0x3c, 0xb0, 0xfa, 0x58, 0x3e, 0x80, 0x83, 0xec, 0xbd,
  0x10, 0x76, 0xb4, 0x3c, 0x31, 0x91, 0x15, 0xbd, 0x20, 0xe6, 0x93, 0xbc,
  0x20, 0x97, 0x30, 0x3e, 0xf2, 0x3d, 0x80, 0xbe, 0x9c, 0xae, 0x57, 0x3e,
  0x28, 0x5e, 0xf1, 0x3d, 0xee, 0xfc, 0x45, 0x3e, 0x19, 0x2d, 0x37, 0x3e,
  0xe2, 0x53, 0x88, 0x3e, 0x61, 0x36, 0xd9, 0xbc, 0xbb, 0xba, 0x2d, 0x3e,
  0x9c, 0x8c, 0x61, 0x3e, 0x92, 0xba, 0x8b, 0x3e, 0x6d, 0xc6, 0x7b, 0x3d,
  0xd7, 0x76, 0x91, 0xbd, 0xd6, 0x7b, 0x85, 0x3e, 0x1c, 0x53, 0x5f, 0xbe,
  0x90, 0xea, 0x88, 0xbc, 0x5e, 0xfe, 0x9d, 0xbd, 0x12, 0xa0, 0xda, 0xbd,
  0x28, 0xc6, 0xb6, 0x3d, 0x6c, 0x9f, 0xe7, 0xbd, 0x6b, 0xaf, 0x93, 0x3e,
  0xd6, 0x9a, 0xdd, 0xbc, 0x53, 0x9e, 0x5d, 0xbd, 0x89, 0x08, 0xce, 0xbe,
  0xd2, 0xc9, 0x0a, 0x3e, 0xda, 0x8a, 0x34, 0x3e, 0x7e, 0xfa, 0x5b, 0xbe,
  0xa8, 0x14, 0x13, 0x3e, 0x79, 0xa9, 0x06, 0xbf, 0x40, 0xe5, 0x90, 0x3d,
  0x72, 0x6a, 0x20, 0x3e, 0xfc, 0x73, 0x85, 0x3d, 0x8d, 0xc8, 0x3c, 0x3d,
  0x78, 0x71, 0x32, 0x3d, 0x29, 0x53, 0xa5, 0x3d, 0x60, 0x11, 0x20, 0x3c,
  0x2d, 0x7c, 0x07, 0xbe, 0x8a, 0xf1, 0x63, 0x3e, 0x4d, 0x32, 0xda, 0x3d,
  0xd2, 0xab, 0x1a, 0x3e, 0x48, 0x55, 0x11, 0x3d, 0x7d, 0x72, 0xba, 0xbd,
  0x44, 0xda, 0x06, 0xbb, 0x9f, 0xac, 0x1d, 0xbe, 0x9e, 0x2b, 0x19, 0xbe,
  0xc6, 0xff, 0x5e, 0x3e, 0x15, 0x6d, 0x42, 0x3d, 0x20, 0xaf, 0x42, 0x3d,
  0x35, 0xd8, 0x20, 0xbe, 0xc4, 0x55, 0x45, 0xbe, 0xfe, 0x6b, 0x3a, 0xbe,
  0x06, 0xc8, 0x57, 0x3e, 0xe8, 0x8a, 0x21, 0x3d, 0x72, 0x4c, 0x8f, 0x3d,
  0x17, 0x36, 0x07, 0xbe, 0xf1, 0xec, 0xdc, 0xbd, 0xdf, 0xcc, 0xcd, 0xbd,
  0x3a, 0xa8, 0x44, 0xbe, 0xda, 0x03, 0x52, 0x3e, 0x71, 0xec, 0x0a, 0x3d,
  0x6a, 0x7a, 0x6a, 0x3e, 0x1b, 0xca, 0x78, 0xbd, 0x70, 0xa3, 0xff, 0xbd,
  0x78, 0x66, 0x9f, 0x3d, 0xec, 0x70, 0xc2, 0x3d, 0xa8, 0x6d, 0x7d, 0x3d,
  0xfc, 0xae, 0x7b, 0xbe, 0xa0, 0x5d, 0x2d, 0xbc, 0x6a, 0xe2, 0xf4, 0x3d,
  0x60, 0x39, 0x14, 0xbf, 0xa1, 0xa3, 0xdc, 0x3d, 0xe2, 0x18, 0xcc, 0xbd,
  0xe0, 0xa1, 0xe4, 0x3d, 0x08, 0x38, 0x98, 0x3d, 0xec, 0x16, 0x75, 0x3e,
  0xc0, 0x25, 0xf1, 0x3d, 0x2d, 0xda, 0x23, 0xbf, 0xcc, 0xc2, 0x56, 0x3e,
  0xfd, 0xf2, 0x4f, 0xbe, 0x3a, 0x06, 0xf8, 0xbd, 0x6a, 0x3b, 0x6c, 0xbe,
  0x8e, 0x38, 0x7a, 0xbd, 0xfd, 0xe0, 0x39, 0x3e, 0xe0, 0xc3, 0x4a, 0xbe,
  0x9d, 0x96, 0x98, 0xbe, 0x58, 0x10, 0xee, 0x3d, 0xbd, 0x19, 0x03, 0xbd,
  0xe8, 0x87, 0xe6, 0xbd, 0x2c, 0x11, 0x21, 0x3e, 0xd2, 0xfd, 0x6c, 0xbf,
  0x52, 0x3a, 0x08, 0x3e, 0x50, 0x8a, 0x67, 0x3e, 0x53, 0x0b, 0x4a, 0xbd,
  0x04, 0xe2, 0x7e, 0x3e, 0x2c, 0x14, 0x33, 0xbe, 0xfc, 0xab, 0x13, 0xbe,
  0xa7, 0xf0, 0x91, 0xbe, 0xea, 0x2e, 0x92, 0xbe, 0xca, 0x7a, 0x5f, 0xbe,
  0xf4, 0x80, 0xd2, 0xbe, 0x64, 0x84, 0x39, 0xbe, 0xaf, 0x21, 0xe1, 0xbe,
  0xa0, 0x6c, 0x92, 0xbd, 0x5b, 0x25, 0xa8, 0x3e, 0x08, 0xec, 0xff, 0xbd,
  0x60, 0x2d, 0x10, 0x3c, 0x94, 0xef, 0x21, 0x3e, 0xed, 0x2c, 0x29, 0x3d,
  0xd9, 0x00, 0xcd, 0xbd, 0x9a, 0x01, 0x09, 0xbf, 0x54, 0x2e, 0x22, 0xbe,
  0x60, 0xd6, 0x2b, 0x3e, 0xe6, 0x02, 0x64, 0x3e, 0xc3, 0xf0, 0x8a, 0xbe,
  0x7a, 0x62, 0x5b, 0x3e, 0x22, 0x2e, 0x32, 0xbe, 0x91, 0x41, 0x28, 0xbf,
  0x2b, 0x7d, 0x5b, 0x3e, 0xde, 0x02, 0x82, 0xbe, 0x20, 0xb7, 0xee, 0xbc,
  0x80, 0xfc, 0x98, 0xbc, 0xb0, 0x3d, 0x08, 0x3e, 0x44, 0x16, 0x6a, 0xbd,
  0x40, 0xdd, 0xef, 0x3d, 0x6e, 0x5c, 0x5a, 0xbe, 0xdc, 0x19, 0x75, 0x3e,
  0x3d, 0x97, 0x17, 0xbe, 0x70, 0xb3, 0x76, 0x3d, 0x6c, 0xb4, 0x0c, 0x3e,
  0x57, 0x00, 0x38, 0x3e, 0x84, 0xcd, 0x95, 0x3c, 0x8c, 0xab, 0x23, 0xbd,
  0x76, 0xb4, 0xbe, 0x3d, 0x19, 0xb1, 0x26, 0xbd, 0xac, 0x63, 0x44, 0xbe,
  0x70, 0x08, 0x8c, 0x3d, 0xe4, 0xc3, 0x1e, 0xbd, 0x70, 0xcf, 0x0c, 0x3e,
  0xdf, 0x0e, 0x59, 0x3e, 0x20, 0x79, 0xeb, 0x3c, 0xf3, 0x87, 0x44, 0xbe,
  0xdc, 0xce, 0x77, 0x3e, 0x9f, 0xb0, 0x33, 0xbe, 0x00, 0x0c, 0x8d, 0x3a,
  0x1c, 0x0a, 0x51, 0x3e, 0x05, 0x1e, 0x3f, 0x3e, 0x70, 0xc8, 0xe7, 0x3c,
  0xc6, 0x44, 0x5f, 0xbe, 0xf8, 0xf7, 0x85, 0x3e, 0x13, 0x47, 0x80, 0x3d,
  0x6c, 0xac, 0x71, 0xbe, 0x6b, 0xd8, 0x0c, 0xbe, 0xc1, 0x80, 0xef, 0x3d,
  0x8c, 0x65, 0xb7, 0x3d, 0xd8, 0xca, 0x74, 0x3e, 0x2a, 0x0c, 0xbc, 0xbd,
  0x73, 0x66, 0x3e, 0xbe, 0x81, 0x15, 0x1a, 0x3e, 0xca, 0x58, 0x3a, 0x3e,
  0x40, 0x08, 0x23, 0x3d, 0x0e, 0x08, 0x2b, 0xbe, 0xe8, 0x21, 0x22, 0x3e,
  0x58, 0x8d, 0x6b, 0xbe, 0x6a, 0x9f, 0x86, 0xbe, 0xf3, 0x66, 0x47, 0xbe,
  0xbf, 0xa4, 0x02, 0x3f, 0x18, 0xbf, 0x23, 0x3e, 0x64, 0x46, 0xc7, 0x3e,
  0x30, 0xd7, 0x00, 0x3e, 0x2c, 0xdc, 0x8b, 0xbe, 0x16, 0xf3, 0x97, 0xbd,
  0xb2, 0xcb, 0x35, 0x3e, 0x89, 0xe2, 0x53, 0x3f, 0x5e, 0x3a, 0x17, 0x3e,
  0xd8, 0xde, 0xa9, 0xbd, 0x4c, 0x86, 0xe6, 0xbd, 0x61, 0xc3, 0xd7, 0xbd,
  0x09, 0x4a, 0x21, 0x3e, 0xf9, 0x49, 0x18, 0xbd, 0x52, 0x72, 0xa6, 0xbd,
  0xd8, 0xfb, 0x4a, 0xbe, 0x58, 0xb4, 0x8a, 0x3d, 0xa0, 0x8c, 0x22, 0xbe,
  0x3a, 0xa3, 0x38, 0xbe, 0x00, 0x99, 0xa0, 0x3c, 0xc8, 0x65, 0x3d, 0x3d,
  0xc3, 0xaa, 0x30, 0xbe, 0x92, 0x36, 0x80, 0x3e, 0xcf, 0xee, 0x73, 0x3e,
  0xfe, 0x45, 0x0a, 0xbe, 0xf8, 0xc7, 0x2a, 0xbe, 0x20, 0x7b, 0x73, 0xbc,
  0x80, 0xce, 0x1a, 0xbe, 0x28, 0x8d, 0xfa, 0xbd, 0x2a, 0x80, 0x3b, 0xbe,
  0x06, 0xf5, 0x45, 0x3e, 0xb6, 0x2f, 0x6c, 0xbe, 0x7b, 0x67, 0x76, 0xbe,
  0xc8, 0xed, 0x68, 0xbe, 0x87, 0xf9, 0x4f, 0xbe, 0x89, 0x2c, 0x84, 0xbe,
  0xa6, 0x4f, 0x25, 0x3e, 0x70, 0x47, 0xd2, 0x3c, 0xb7, 0xb8, 0x4b, 0x3e,
  0x38, 0xad, 0x3b, 0x3e, 0x67, 0x43, 0x7b, 0x3e, 0xc0, 0x5f, 0xe6, 0x3d,
  0x78, 0x12, 0x91, 0xbd, 0x1a, 0x96, 0xa5, 0xbd, 0xee, 0x62, 0x89, 0x3e,
  0x8c, 0xb1, 0xc4, 0x3d, 0x1e, 0x6b, 0x45, 0xbe, 0xd8, 0x19, 0x65, 0xbe,
  0x73, 0xad, 0x42, 0xbe, 0x92, 0x86, 0x1b, 0xbe, 0x0a, 0xbb, 0xf0, 0xbd,
  0xbe, 0x71, 0x5c, 0x3e, 0x4c, 0xaf, 0xf9, 0x3d, 0x94, 0x32, 0x54, 0xbd,
  0x60, 0x4d, 0x40, 0x3d, 0x58, 0xe6, 0x83, 0x3d, 0xb0, 0x56, 0x7b, 0x3e,
  0x20, 0x0b, 0x65, 0x3c, 0xa8, 0x76, 0x6d, 0x3e, 0x0d, 0xbf, 0x60, 0x3e,
  0xda, 0x97, 0x8a, 0xbe, 0xbe, 0x86, 0x3f, 0x3e, 0x7c, 0x61, 0x95, 0x3d,
  0xb5, 0x2e, 0x34, 0x3e, 0x68, 0x94, 0x78, 0x3e, 0x78, 0x32, 0x4a, 0x3e,
  0x1c, 0x9b, 0x9b, 0x3d, 0x40, 0xcf, 0xbc, 0xbd, 0xdc, 0xd7, 0x1a, 0xbd,
  0x03, 0xa6, 0x19, 0xbe, 0xc0, 0x96, 0x53, 0xbe, 0xd6, 0x6f, 0x7c, 0xbe,
  0xc0, 0xbb, 0x6f, 0x3c, 0x3a, 0x0f, 0x9c, 0xbe, 0xfa, 0x01, 0xbe, 0xbd,
  0xe9, 0x14, 0xa0, 0xbe, 0xa5, 0xda, 0x28, 0xbe, 0x8e, 0x62, 0x11, 0xbe,
  0x54, 0x2f, 0x23, 0x3d, 0xb0, 0x90, 0x87, 0x3e, 0x05, 0x68, 0x50, 0xbe,
  0xe5, 0x0e, 0x44, 0x3e, 0xfa, 0x59, 0x9a, 0xbe, 0x58, 0x06, 0x0b, 0xbe,
  0x9b, 0x3d, 0x87, 0xbe, 0x80, 0x0a, 0xfb, 0xbb, 0x3b, 0x59, 0x7d, 0x3d,
  0x81, 0x2a, 0x5f, 0xbe, 0xc1, 0xdd, 0x81, 0xbe, 0x4c, 0xd5, 0x57, 0xbd,
  0x00, 0x04, 0x99, 0x3b, 0xf8, 0xcb, 0x82, 0x3e, 0x08, 0x42, 0xce, 0x3d,
  0xbc, 0x5f, 0x77, 0xbe, 0x0c, 0xd3, 0xa8, 0x3d, 0xcb, 0x1f, 0x0a, 0x3e,
  0xd0, 0x22, 0x53, 0x3e, 0x8d, 0x57, 0xaf, 0xbe, 0xad, 0x0a, 0xc6, 0x3c,
  0x80, 0x4c, 0x69, 0xbc, 0x64, 0x44, 0xdf, 0x3d, 0x40, 0x4b, 0x9c, 0xbb,
  0x04, 0x58, 0xcd, 0xbd, 0x0b, 0x4e, 0x92, 0xbe, 0x18, 0xa9, 0x44, 0x3d,
  0x58, 0xe1, 0xb1, 0xbd, 0xc8, 0x2a, 0x27, 0x3e, 0x82, 0xb7, 0x51, 0xbe,
  0xfa, 0x27, 0x03, 0xbd, 0x62, 0xc3, 0x2d, 0x3c, 0xc4, 0x6d, 0xee, 0x3d,
  0x92, 0xbf, 0x1d, 0xbe, 0x5c, 0xa6, 0x71, 0x3e, 0x26, 0x21, 0xdd, 0xbd,
  0x10, 0x90, 0x14, 0x3e, 0xe0, 0x87, 0xb6, 0x3c, 0x9c, 0xa0, 0xe4, 0x3d,
  0xf9, 0xd2, 0x9c, 0x3c, 0x64, 0xb2, 0x69, 0x3e, 0x02, 0x23, 0x3f, 0x3e,
  0xa4, 0xe9, 0x83, 0x3e, 0xad, 0x0a, 0x8c, 0xbe, 0x63, 0x63, 0x86, 0xbe,
  0xf8, 0xe5, 0x72, 0xbe, 0xb0, 0xe8, 0x53, 0xbe, 0xda, 0xd9, 0x44, 0x3e,
  0x8e, 0x50, 0x14, 0x3e, 0xc0, 0x4d, 0x9c, 0x3b, 0x24, 0xf7, 0x91, 0x3d,
  0xf6, 0x49, 0x80, 0xbe, 0xf8, 0x9a, 0x51, 0xbe, 0xc0, 0xfb, 0xe4, 0x3d,
  0x8c, 0xea, 0x6d, 0x3e, 0x78, 0x62, 0x7e, 0xbe, 0x18, 0x5e, 0x82, 0xbe,
  0xa0, 0x20, 0x48, 0x3c, 0xc8, 0x7c, 0x54, 0x3d, 0x06, 0x06, 0x52, 0xbe,
  0x0e, 0x12, 0x54, 0x3e, 0x42, 0x99, 0x39, 0xbe, 0x66, 0x23, 0x5e, 0x3e,
  0xdc, 0x71, 0xc5, 0x3d, 0x80, 0xd1, 0x72, 0x3e, 0x1b, 0x14, 0x05, 0xbe,
  0x2d, 0x35, 0x8a, 0xbe, 0x2c, 0x0f, 0xd9, 0x3d, 0xa2, 0x3d, 0x5b, 0x3e,
  0x60, 0xb9, 0x78, 0x3d, 0xd4, 0x7d, 0xa1, 0x3d, 0xc2, 0x08, 0x1e, 0xbe,
  0x60, 0x3f, 0x31, 0xbe, 0x1e, 0xb7, 0xaf, 0xbd, 0xfe, 0x65, 0x26, 0x3e,
  0xe0, 0x6d, 0x72, 0x3e, 0x44, 0xf8, 0xc3, 0x3d, 0xd1, 0xad, 0x80, 0x3e,
  0x98, 0xfc, 0xf0, 0xbd, 0x4c, 0xc6, 0xf5, 0x3d, 0x00, 0xb8, 0x88, 0x3b,
  0x2d, 0xab, 0xf0, 0xbd, 0xeb, 0xcd, 0x49, 0xbe, 0xf0, 0x65, 0x1d, 0x3e,
  0x90, 0x5e, 0xed, 0x3d, 0x3b, 0x88, 0x47, 0xbe, 0x5a, 0x98, 0x97, 0x3c,
  0xec, 0x3e, 0x98, 0xbe, 0xc8, 0x49, 0xd9, 0x3d, 0x20, 0x57, 0xa9, 0xbe,
  0x4b, 0x57, 0x02, 0xbe, 0x2a, 0xd1, 0x79, 0x3e, 0x14, 0xdf, 0x1d, 0xbe,
  0x7c, 0x0d, 0x45, 0x3e, 0x89, 0x86, 0x6e, 0x3e, 0x64, 0x7c, 0x07, 0xbd,
  0x73, 0xca, 0x6b, 0x3b, 0x00, 0x52, 0xd9, 0xbd, 0x73, 0xa3, 0xaa, 0xbd,
  0xca, 0x52, 0x31, 0x3d, 0xc2, 0xb4, 0xbe, 0x3d, 0x3e, 0xdb, 0x27, 0x3e,
  0x6e, 0x94, 0x1c, 0x3e, 0xe8, 0x28, 0x35, 0xbd, 0x73, 0x7c, 0x93, 0xbe,
  0x40, 0x03, 0xb0, 0x3b, 0xcc, 0x4e, 0x02, 0xbe, 0xf7, 0x77, 0x0f, 0xbe,
  0x26, 0xe5, 0xd7, 0xbd, 0x58, 0x3b, 0x88, 0xbe, 0x2b, 0xbf, 0x0b, 0xbe,
  0x51, 0x8f, 0x47, 0xbe, 0x00, 0x70, 0xf4, 0xbd, 0x25, 0xf3, 0x2f, 0x3e,
  0xc8, 0x10, 0xa6, 0xbd, 0x72, 0xf0, 0x68, 0xbe, 0x19, 0x16, 0xae, 0xbd,
  0xca, 0x5e, 0xac, 0xbd, 0x16, 0xaa, 0x00, 0xbe, 0x38, 0x38, 0x7f, 0x3e,
  0x1a, 0xf6, 0x83, 0x3e, 0x51, 0xf2, 0x5c, 0x3e, 0x00, 0x65, 0xb3, 0xbd,
  0x0e, 0x8e, 0x4b, 0x3e, 0xf2, 0x78, 0xeb, 0xbd, 0x86, 0xef, 0x9d, 0x3d,
  0x44, 0x3f, 0xfd, 0x3d, 0x24, 0xba, 0x13, 0x3e, 0x13, 0xf2, 0x3d, 0xbe,
  0xb2, 0x29, 0x0a, 0x3e, 0x1c, 0xd5, 0x7a, 0x3e, 0x3f, 0x4b, 0x70, 0xbd,
  0x30, 0x29, 0x14, 0x3d, 0xc5, 0x0e, 0x7a, 0xbe, 0x16, 0x1f, 0x8f, 0x3e,
  0x5f, 0x8a, 0x47, 0xbd, 0x5c, 0xf4, 0xb0, 0x3d, 0x88, 0x94, 0xc8, 0x3d,
  0x86, 0x38, 0xa3, 0xbd, 0x8a, 0x4c, 0x54, 0xbe, 0x90, 0xa4, 0x8e, 0x3d,
  0x18, 0x44, 0x40, 0xbe, 0x6c, 0x0c, 0x22, 0xbd, 0xd4, 0xd5, 0x88, 0x3e,
  0xa1, 0x18, 0xf8, 0xbd, 0x40, 0xd1, 0x2e, 0x3e, 0xdf, 0xcd, 0x8f, 0x3e,
  0x37, 0x71, 0x04, 0xbe, 0x99, 0x46, 0xf0, 0x3d, 0xe5, 0x85, 0x2f, 0xbe,
  0x28, 0xe8, 0x3e, 0xbe, 0xac, 0x79, 0xf7, 0x3d, 0x07, 0x73, 0xcf, 0xbd,
  0x52, 0x31, 0x3d, 0xbd, 0x1d, 0x9c, 0x5c, 0x3e, 0x84, 0x09, 0x2c, 0xbe,
  0x90, 0x8c, 0xb9, 0x3d, 0x64, 0x0c, 0x58, 0xbe, 0xe8, 0x9b, 0x7a, 0x3d,
  0x4d, 0xdd, 0x36, 0xbe, 0x80, 0xd8, 0xee, 0x3b, 0xc4, 0x12, 0x6c, 0xbe,
  0xca, 0x24, 0x8b, 0x3e, 0x2f, 0x3d, 0x91, 0x3e, 0xc6, 0x98, 0x07, 0x3e,
  0x08, 0x0f, 0x04, 0xbe, 0xd4, 0xef, 0x84, 0xbe, 0x0a, 0x9e, 0x87, 0xbe,
  0x92, 0xdd, 0x5e, 0x3e, 0xbe, 0x98, 0x22, 0x3f, 0xbe, 0x57, 0x86, 0xbe,
  0x54, 0xaa, 0xa5, 0x3d, 0x1e, 0xa6, 0x86, 0xbe, 0xe2, 0x6b, 0x1f, 0xbe,
  0xf2, 0x77, 0x8c, 0x3e, 0xd9, 0x26, 0x97, 0x3e, 0xbc, 0x36, 0x98, 0x3d,
  0xfe, 0x87, 0x38, 0xbe, 0x40, 0x62, 0xc4, 0x3d, 0x62, 0x4c, 0x51, 0x3e,
  0xfb, 0x56, 0x86, 0xbe, 0xf0, 0x4b, 0x72, 0x3e, 0x1a, 0x88, 0x64, 0xbe,
  0x74, 0xf3, 0x9c, 0x3d, 0x5e, 0xe9, 0xa7, 0xbd, 0xb8, 0xcf, 0xf5, 0x3d,
  0x58, 0x8c, 0x60, 0x3e, 0x7e, 0x28, 0x1f, 0xbe, 0xee, 0x0b, 0xdc, 0xbd,
  0x47, 0x8c, 0xc5, 0xbd, 0xff, 0x6b, 0x08, 0xbd, 0x00, 0x3f, 0x58, 0xbd,
  0xdb, 0x53, 0xa5, 0x3b, 0xe6, 0x13, 0x48, 0xbe, 0x0e, 0x6f, 0xeb, 0x3d,
  0x10, 0xa4, 0xca, 0x3d, 0xa9, 0xf1, 0x1b, 0x3e, 0x41, 0x63, 0x4c, 0x3e,
  0xc2, 0xd9, 0xe2, 0xbd, 0x20, 0x8f, 0x35, 0xbd, 0xd6, 0x4c, 0x00, 0xbe,
  0xc9, 0x33, 0x72, 0x3d, 0x6c, 0x14, 0x85, 0xbd, 0x50, 0x6c, 0x94, 0x3c,
  0x78, 0x39, 0xe9, 0xbc, 0xf6, 0xb6, 0x3a, 0x3e, 0xc0, 0x2f, 0x97, 0xbb,
  0x54, 0xda, 0x05, 0x3e, 0x72, 0xd2, 0x26, 0x3e, 0x62, 0xd7, 0xa5, 0x3c,
  0x41, 0x7d, 0x7d, 0xbf, 0xfc, 0x54, 0xb6, 0xbe, 0xab, 0x1f, 0x97, 0x3d,
  0x88, 0x1f, 0x1d, 0x3e, 0x4c, 0x10, 0x73, 0xbd, 0x82, 0x4b, 0x66, 0xbe,
  0x74, 0x21, 0x09, 0xbd, 0x02, 0xd2, 0xde, 0x3d, 0x00, 0x6f, 0xc8, 0x3a,
  0x22, 0xec, 0x07, 0x3e, 0x0c, 0x8d, 0x25, 0xbe, 0xdf, 0xcc, 0x05, 0x3d,
  0xf4, 0xb5, 0x88, 0xbe, 0xda, 0x74, 0x4c, 0xbe, 0x28, 0x0e, 0x7c, 0x3d,
  0x72, 0xe6, 0xff, 0xff, 0x04, 0x00, 0x00, 0x00, 0x00, 0x10, 0x00, 0x00,
  0x9f, 0x00, 0x12, 0xbb, 0x62, 0x01, 0xd9, 0xbe, 0xe2, 0xbe, 0x22, 0xbe,
  0x85, 0xac, 0xcf, 0x3d, 0x74, 0x4a, 0xb6, 0xbe, 0x94, 0xe3, 0x72, 0x3e,
  0x6c, 0x42, 0x83, 0xbe, 0xd0, 0xa8, 0x3c, 0x3d, 0x6d, 0x3b, 0x7d, 0x3e,
  0xa4, 0x0a, 0x17, 0xbe, 0x12, 0xcd, 0x48, 0xbe, 0xef, 0xed, 0x8d, 0x3e,
  0x67, 0x9b, 0xe8, 0x3b, 0x4f, 0x57, 0x36, 0xbe, 0x1f, 0x20, 0xa2, 0x3e,
  0xe2, 0xe2, 0x4c, 0x3e, 0xf1, 0x9b, 0x87, 0xbe, 0x00, 0xba, 0x11, 0x3e,
  0xca, 0x22, 0xe5, 0xbe, 0x01, 0xa1, 0x0b, 0xbf, 0xdf, 0xe9, 0xe8, 0x3d,
  0x65, 0xcc, 0x5e, 0xbe, 0x34, 0x5e, 0x6b, 0x3e, 0x46, 0x25, 0x17, 0x3e,
  0x85, 0xf6, 0x03, 0xbf, 0x96, 0x0c, 0x84, 0xbe, 0x01, 0x93, 0xa6, 0xbe,
  0x6e, 0x63, 0x19, 0xbe, 0x37, 0xdb, 0x62, 0x3c, 0xdb, 0xc1, 0x67, 0xbe,
  0xf3, 0x5d, 0xa4, 0x3d, 0x04, 0x24, 0x94, 0xbe, 0xc8, 0xfa, 0x6b, 0xbe,
  0xb0, 0xfb, 0x38, 0x3e, 0x31, 0x0d, 0x4b, 0x3e, 0xaa, 0x79, 0x5c, 0x3e,
  0x75, 0xe4, 0x09, 0x3e, 0xa7, 0x97, 0xa7, 0x3e, 0x33, 0x1b, 0x4f, 0x3e,
  0x98, 0x1e, 0x23, 0x3d, 0x03, 0x66, 0x86, 0x3c, 0x12, 0x66, 0x68, 0xbe,
  0x1f, 0xc5, 0xe0, 0xbe, 0xcb, 0x0b, 0x81, 0x3e, 0x3c, 0xb6, 0xf3, 0x3d,
  0xa1, 0x00, 0x0b, 0xbe, 0xc1, 0xcf, 0x8a, 0x3e, 0x3a, 0x21, 0x69, 0x3e,
  0x78, 0x84, 0x70, 0xbe, 0xef, 0xba, 0xd2, 0x3d, 0xa8, 0xfc, 0xa6, 0xbe,
  0xb0, 0x97, 0xfe, 0xbe, 0xf9, 0x8c, 0x9b, 0x3e, 0xc3, 0x25, 0xcf, 0xbd,
  0x76, 0xab, 0x19, 0x3d, 0xbf, 0x2d, 0x69, 0x3e, 0x89, 0x02, 0x92, 0xbe,
  0x50, 0x49, 0x7c, 0xbe, 0xd6, 0x59, 0x58, 0xbe, 0x80, 0xeb, 0x41, 0x3e,
  0xbc, 0xf6, 0x3e, 0x3e, 0xe9, 0x52, 0x32, 0x3e, 0xa2, 0xd4, 0x2b, 0x3d,
  0xf9, 0xc9, 0x26, 0xbe, 0x22, 0x61, 0x33, 0x3e, 0xf4, 0xfc, 0x61, 0xbe,
  0xcc, 0x72, 0x4e, 0x3d, 0xb8, 0x81, 0x60, 0xbe, 0xe6, 0xec, 0x3c, 0xbe,
  0x66, 0x17, 0x82, 0xbe, 0x9e, 0x8d, 0x67, 0x3e, 0x9c, 0x49, 0xe7, 0x3d,
  0x90, 0x17, 0xec, 0xbc, 0x1d, 0x2f, 0x14, 0x3e, 0x0d, 0xa2, 0xf3, 0x3d,
  0x0c, 0x32, 0x9a, 0xbe, 0x40, 0x58, 0x2f, 0x3d, 0x5b, 0x54, 0x82, 0xbe,
  0xec, 0xd6, 0xc9, 0x3d, 0x37, 0x9b, 0x80, 0xbe, 0x29, 0x8f, 0x0c, 0xbb,
  0x8b, 0x1c, 0x66, 0x3d, 0xfd, 0x6a, 0x19, 0xbe, 0xc3, 0x3d, 0xdf, 0xbe,
  0x55, 0xa1, 0x2b, 0x3d, 0xee, 0x9e, 0x50, 0x3e, 0x44, 0xed, 0x4e, 0x3e,
  0xb0, 0x63, 0xa0, 0xbe, 0x90, 0x22, 0x7d, 0xbd, 0xaf, 0x62, 0x95, 0xbe,
  0x02, 0x44, 0x53, 0x3e, 0xe1, 0x5e, 0x37, 0x3e, 0x25, 0x66, 0x93, 0x3e,
  0x0d, 0x6d, 0x86, 0x3e, 0x44, 0x12, 0x0f, 0x3d, 0x88, 0x8f, 0xef, 0xbe,
  0x43, 0x8d, 0x82, 0xbe, 0x46, 0x96, 0x11, 0xbd, 0xc8, 0xb5, 0x2e, 0xbe,
  0xc5, 0x63, 0xd0, 0xbd, 0x8f, 0xff, 0xfd, 0x3d, 0xd0, 0xd9, 0x19, 0x3d,
  0xe7, 0x2e, 0x8a, 0x3e, 0x60, 0x63, 0x32, 0x3d, 0x32, 0xe1, 0x8a, 0x3d,
  0x1c, 0x64, 0x30, 0x3c, 0x6a, 0xda, 0x64, 0xbd, 0x54, 0x09, 0x8b, 0xbe,
  0xbe, 0x9d, 0x82, 0xbe, 0x23, 0x88, 0xb4, 0x3e, 0x5e, 0x3b, 0x84, 0x3e,
  0x1d, 0xc2, 0x3f, 0x3e, 0xa9, 0x29, 0x0d, 0x3e, 0x22, 0xfa, 0x3b, 0x3e,
  0xe1, 0xa8, 0x87, 0x3e, 0x47, 0xc1, 0x81, 0xbc, 0x59, 0x48, 0x7f, 0xbd,
  0xf5, 0x51, 0x66, 0x3d, 0x79, 0xb0, 0x49, 0x3e, 0xbd, 0x53, 0x52, 0x3c,
  0x6a, 0x0c, 0x57, 0x3e, 0x72, 0xcd, 0xa2, 0xbe, 0xa0, 0xa5, 0x64, 0xbc,
  0x05, 0x06, 0x50, 0x3e, 0x4c, 0x94, 0x29, 0x3e, 0x23, 0x7d, 0x43, 0x3e,
  0x4c, 0xb2, 0x88, 0x3e, 0x4e, 0x27, 0xc1, 0xbe, 0x81, 0xad, 0xcd, 0xbd,
  0x5e, 0xa8, 0xbd, 0xbd, 0x29, 0x41, 0x43, 0x3e, 0xd4, 0x1b, 0x55, 0x3e,
  0xaa, 0x1c, 0x66, 0xbf, 0x09, 0x2c, 0x4f, 0x3c, 0x8c, 0x60, 0x1c, 0xbe,
  0x1a, 0xec, 0x49, 0xbe, 0xd9, 0x22, 0x8e, 0x3e, 0xea, 0xc4, 0xaf, 0xbd,
  0x69, 0xdf, 0xca, 0x3e, 0x1e, 0x77, 0x11, 0xbe, 0x04, 0x29, 0x57, 0x3e,
  0xcf, 0xdb, 0x7c, 0xbe, 0x32, 0x6e, 0x94, 0x3d, 0x9f, 0xf4, 0x9f, 0x3d,
  0x06, 0xec, 0x94, 0xbd, 0x1c, 0x4e, 0xd2, 0x3d, 0xa3, 0x33, 0x9b, 0xbe,
  0x85, 0xab, 0xa4, 0xbe, 0x66, 0x6e, 0xbf, 0x3d, 0xef, 0x05, 0xcf, 0x3d,
  0x6e, 0xeb, 0x0a, 0xbe, 0x55, 0x4c, 0x3a, 0xbe, 0x91, 0x65, 0xcc, 0xbe,
  0xd3, 0x96, 0x63, 0x3e, 0x0e, 0xfe, 0x2b, 0x3e, 0xd4, 0xa8, 0x50, 0xbe,
  0x00, 0xa9, 0x20, 0xbe, 0x78, 0x5e, 0x07, 0x3e, 0x8b, 0x6d, 0x9d, 0xbd,
  0xbb, 0xa3, 0xfb, 0x3d, 0xae, 0xce, 0x62, 0xbe, 0x58, 0xe7, 0xb0, 0x3a,
  0x40, 0xf6, 0x82, 0x3e, 0x96, 0xd7, 0x63, 0xbe, 0x25, 0x0f, 0x66, 0xbe,
  0xb6, 0xb0, 0x62, 0xbd, 0x14, 0x0d, 0x8f, 0x3e, 0xa6, 0x44, 0x09, 0xbe,
  0xaa, 0x48, 0xef, 0x3d, 0xbf, 0x6a, 0x01, 0x3e, 0x03, 0x7f, 0xb0, 0xbe,
  0x72, 0x75, 0x54, 0xbe, 0xa7, 0xc2, 0x29, 0xbe, 0xf3, 0x03, 0xb2, 0xbd,
  0x66, 0x31, 0x9a, 0x3d, 0xde, 0x2e, 0x4b, 0x3d, 0x36, 0x90, 0x95, 0xbe,
  0x7e, 0x76, 0x6c, 0x3c, 0x95, 0xf9, 0x89, 0xbe, 0x09, 0xf3, 0xf0, 0xbe,
  0x11, 0x8f, 0x0d, 0xbe, 0x90, 0xe3, 0xd9, 0xbb, 0x19, 0x4e, 0xb7, 0x3e,
  0x8a, 0xe3, 0x45, 0x3d, 0xe0, 0x87, 0xdb, 0x3c, 0x18, 0xdf, 0x48, 0xbe,
  0x78, 0xce, 0x47, 0x3d, 0xa1, 0x42, 0x72, 0xba, 0x08, 0xe2, 0xe9, 0xbd,
  0xb0, 0xaa, 0xa4, 0xbd, 0x5c, 0x82, 0x10, 0x3e, 0x90, 0x62, 0x89, 0xbe,
  0x5b, 0x57, 0x32, 0xbe, 0x0e, 0x1b, 0x2c, 0xbe, 0x1a, 0xb1, 0x2e, 0x3e,
  0x5a, 0xcb, 0x19, 0x3e, 0x88, 0x06, 0x0f, 0xbe, 0xa2, 0x40, 0x51, 0x3e,
  0x1e, 0x05, 0x20, 0xbe, 0x50, 0xa7, 0xdf, 0xbc, 0x2d, 0x0e, 0x7a, 0x3d,
  0x1d, 0x70, 0x16, 0xbb, 0x37, 0xbe, 0x9e, 0xbe, 0x9d, 0x5d, 0x9b, 0x3e,
  0x30, 0x6e, 0x51, 0x3e, 0x53, 0xac, 0x38, 0xbe, 0x52, 0x72, 0xe9, 0xb9,
  0xa1, 0xbb, 0xf0, 0x3d, 0x76, 0xaa, 0x66, 0x3e, 0xb8, 0x91, 0x2b, 0xbd,
  0x9e, 0x51, 0x4a, 0x3c, 0x7a, 0x5d, 0x8d, 0x3e, 0xcb, 0x7a, 0x34, 0x3e,
  0x7c, 0x39, 0x1b, 0x3e, 0xf6, 0xef, 0x58, 0xbe, 0x19, 0xda, 0x21, 0xbe,
  0x21, 0x5a, 0x24, 0xbe, 0x2c, 0x3d, 0x12, 0x3e, 0x30, 0x85, 0xbd, 0xbc,
  0x91, 0x61, 0x58, 0xbe, 0xf3, 0xdc, 0x93, 0x3e, 0xf3, 0x58, 0x06, 0xba,
  0x8e, 0x16, 0x71, 0x3e, 0x22, 0x60, 0x31, 0x3e, 0x26, 0x0d, 0x7d, 0x3e,
  0x22, 0x79, 0x86, 0x3e, 0x92, 0x1b, 0x19, 0x3e, 0x75, 0xcd, 0x08, 0xbe,
  0x04, 0x9f, 0x6d, 0xbe, 0x6c, 0x70, 0x04, 0x3e, 0x3b, 0x42, 0x5f, 0x3c,
  0xac, 0xe8, 0x91, 0xbe, 0xc6, 0x05, 0x90, 0xbe, 0x93, 0x61, 0x25, 0x3e,
  0x3a, 0x36, 0x40, 0x3e, 0x82, 0xb7, 0x37, 0xbe, 0x05, 0x83, 0xc8, 0xbd,
  0x76, 0xba, 0xc1, 0xbd, 0xe6, 0xb8, 0x92, 0xbd, 0x6c, 0x1d, 0x65, 0x3e,
  0xb1, 0x50, 0x1f, 0xbb, 0x20, 0x43, 0x0a, 0x3c, 0x41, 0x87, 0x5e, 0x3e,
  0xb4, 0x52, 0xde, 0xbd, 0xf8, 0xbc, 0x95, 0xbe, 0xa0, 0x01, 0x8d, 0xbe,
  0x03, 0x59, 0xb3, 0xbe, 0xbb, 0x4f, 0xd8, 0xbd, 0x45, 0xee, 0x7c, 0x3d,
  0x78, 0xdf, 0x43, 0xbe, 0x36, 0x0a, 0x33, 0xbe, 0xa8, 0x0b, 0x77, 0x3e,
  0xa0, 0xc0, 0x57, 0xbc, 0x7f, 0x60, 0x3a, 0xbe, 0x9b, 0x2c, 0x7f, 0x3e,
  0x94, 0x70, 0xab, 0x3e, 0xff, 0xde, 0x46, 0xbe, 0x10, 0xed, 0x54, 0x3e,
  0x82, 0xb0, 0xbb, 0xbd, 0x71, 0x10, 0x82, 0xbe, 0x40, 0x58, 0x3e, 0x3e,
  0xf2, 0xa4, 0xe5, 0xbd, 0x87, 0x0b, 0x3a, 0xbe, 0x86, 0x2d, 0x87, 0xbe,
  0x58, 0xda, 0x8c, 0xbe, 0x41, 0xb8, 0x1e, 0xbe, 0x18, 0xe8, 0xc8, 0xbd,
  0xb6, 0xfa, 0x1e, 0x3e, 0xd4, 0x2f, 0xac, 0xbd, 0xd3, 0xbb, 0x67, 0x3d,
  0x57, 0xe1, 0x83, 0xbd, 0x6c, 0x0e, 0xd2, 0xbd, 0x10, 0x86, 0xbc, 0x3d,
  0xaf, 0x7d, 0x80, 0xbe, 0xbc, 0xe2, 0x8b, 0x3d, 0x38, 0xd4, 0x41, 0xbd,
  0xc7, 0xb4, 0x86, 0xbe, 0x57, 0xc4, 0xbd, 0x3d, 0xab, 0x89, 0x16, 0x3e,
  0x25, 0xcb, 0x99, 0xbe, 0x2e, 0xf3, 0x4e, 0x3e, 0x94, 0x8d, 0xb9, 0xbe,
  0x20, 0xe6, 0xee, 0x3c, 0xfa, 0xaf, 0x46, 0x3e, 0x28, 0x0e, 0xac, 0x3d,
  0x9a, 0x66, 0x89, 0xbe, 0xa6, 0xcb, 0x9b, 0xbd, 0xa4, 0xd2, 0x73, 0xbd,
  0x8d, 0xb4, 0xac, 0xbd, 0xe3, 0xd5, 0x9f, 0xbe, 0x39, 0x72, 0xe2, 0xbd,
  0x72, 0xd5, 0x14, 0xbe, 0x2b, 0xf3, 0x8e, 0xbe, 0x37, 0x65, 0xe0, 0xbc,
  0xe5, 0x89, 0xc3, 0x3c, 0xe8, 0xc7, 0xeb, 0xbd, 0xb4, 0x7c, 0xeb, 0xbd,
  0x33, 0xee, 0x8e, 0xbe, 0x53, 0x1a, 0x30, 0xbe, 0x9a, 0x21, 0x9d, 0xbd,
  0x37, 0xb1, 0x41, 0xbe, 0x8f, 0x13, 0x6c, 0xbe, 0xdc, 0x77, 0xbf, 0x3e,
  0xd4, 0x40, 0xb9, 0xbd, 0x06, 0x41, 0xc9, 0x3d, 0xae, 0x14, 0x00, 0xbe,
  0xbe, 0x1d, 0x72, 0xbe, 0x4c, 0x64, 0x1e, 0xbf, 0x84, 0x1e, 0x6d, 0x3d,
  0x38, 0x7b, 0x92, 0x3e, 0xd5, 0xa2, 0x0b, 0x3e, 0x97, 0x26, 0x54, 0x3e,
  0x2c, 0xeb, 0xa3, 0xbe, 0xf0, 0xa9, 0xa3, 0xbe, 0xb1, 0x8c, 0xe5, 0x3d,
  0xaa, 0xb9, 0x02, 0x3e, 0xa8, 0x79, 0x22, 0xbe, 0x1d, 0x55, 0x2b, 0x3e,
  0x04, 0xb0, 0x17, 0xbe, 0x24, 0x09, 0x9e, 0x3d, 0x11, 0x04, 0xce, 0xbd,
  0x69, 0xce, 0x22, 0xbe, 0x0e, 0xfd, 0xa9, 0x3c, 0x11, 0xc7, 0x3a, 0xbe,
  0x16, 0xe9, 0x19, 0xbe, 0x6e, 0x05, 0x0a, 0x3e, 0xf3, 0x06, 0x8b, 0xbd,
  0x6c, 0x67, 0x9a, 0x3d, 0xa2, 0x02, 0x4a, 0xbe, 0x40, 0x43, 0x28, 0x3e,
  0x47, 0x39, 0xfc, 0x3e, 0x7a, 0x03, 0xf9, 0xbd, 0x83, 0x0c, 0x1a, 0x3b,
  0x70, 0x91, 0x93, 0x3e, 0xd9, 0xa8, 0x18, 0xbe, 0x44, 0x35, 0x74, 0xbd,
  0xdf, 0x29, 0xa0, 0x3d, 0xf9, 0x9f, 0x41, 0xbe, 0x61, 0xbe, 0xf5, 0x3e,
  0x0c, 0x7a, 0xc0, 0x3e, 0x17, 0x97, 0x69, 0x3e, 0x05, 0x94, 0x37, 0x3e,
  0x20, 0x07, 0xa5, 0x3e, 0xff, 0x7a, 0xc9, 0x3d, 0x2a, 0xeb, 0x02, 0xbe,
  0x59, 0x50, 0xd7, 0x3e, 0xc8, 0xb5, 0x33, 0xbe, 0x8b, 0xd4, 0xfa, 0x3a,
  0x10, 0x77, 0x21, 0x3d, 0x99, 0x2c, 0x58, 0x3a, 0x33, 0x7b, 0xb4, 0x3e,
  0x47, 0xe2, 0x81, 0xbb, 0xdf, 0xe0, 0x0d, 0xbb, 0x8b, 0x2f, 0x93, 0x3e,
  0x5f, 0xf3, 0x1e, 0x3e, 0x69, 0x91, 0x0d, 0x3b, 0x26, 0x46, 0x1f, 0xbe,
  0x42, 0x8c, 0x1a, 0xbe, 0x1d, 0x6c, 0x88, 0x3e, 0xa8, 0xf7, 0xbb, 0x3d,
  0x40, 0xe1, 0x01, 0x3e, 0x4b, 0xb5, 0xc1, 0x3d, 0x66, 0x67, 0xc3, 0xbe,
  0x55, 0x0e, 0x70, 0xbe, 0x00, 0xcf, 0x27, 0xbe, 0xe7, 0x74, 0x4a, 0xbe,
  0x45, 0x19, 0xa2, 0xbd, 0xaf, 0xc7, 0xde, 0x3d, 0x7a, 0x75, 0x86, 0x3e,
  0x1e, 0x0a, 0xb0, 0x3d, 0xa4, 0x88, 0x1a, 0xbe, 0xdf, 0x58, 0xcc, 0x3d,
  0xc9, 0x86, 0xa0, 0xbd, 0x6e, 0xc6, 0x19, 0x3e, 0xe3, 0xdc, 0x95, 0xbd,
  0xd8, 0x73, 0x80, 0x3e, 0x0a, 0xca, 0x6f, 0x3e, 0x87, 0xfb, 0x0d, 0x3e,
  0x4e, 0xc7, 0x65, 0x3e, 0xfb, 0xa6, 0x55, 0x3e, 0x60, 0x47, 0x7b, 0xbe,
  0x48, 0x84, 0x3c, 0x3e, 0x70, 0x12, 0x4b, 0xbe, 0x04, 0xe2, 0xdf, 0xbe,
  0x10, 0x43, 0xc3, 0x3c, 0x9a, 0xf3, 0xb4, 0xbd, 0x98, 0xa8, 0x27, 0x3e,
  0xc0, 0xa0, 0xe5, 0x3b, 0x1d, 0x3f, 0x5d, 0xbe, 0x4b, 0x23, 0x4e, 0xbe,
  0xee, 0x5a, 0x51, 0x3e, 0x68, 0x80, 0x72, 0xbd, 0x2d, 0x8e, 0x2e, 0xbe,
  0xe3, 0xe3, 0x58, 0xbe, 0x70, 0x5a, 0x9d, 0xbd, 0xdc, 0x88, 0x6e, 0xbd,
  0xf5, 0x2d, 0x73, 0xbe, 0xff, 0xa1, 0x7e, 0xbe, 0x11, 0xdf, 0x0f, 0xbe,
  0x5a, 0x6c, 0x4c, 0x3e, 0xdc, 0x75, 0xb6, 0xbd, 0x3c, 0xdc, 0x28, 0x3e,
  0xa8, 0x1c, 0xea, 0x3d, 0x50, 0x86, 0x03, 0x3d, 0x30, 0x67, 0x22, 0x3d,
  0xe8, 0x34, 0x11, 0x3d, 0x42, 0xdb, 0x49, 0xbe, 0x60, 0x39, 0x4f, 0xbd,
  0xd0, 0xda, 0x3e, 0x3d, 0xba, 0x64, 0x00, 0x3e, 0x03, 0x5f, 0x2b, 0xbe,
  0x5c, 0x85, 0xa3, 0xbd, 0x47, 0x98, 0x90, 0x3e, 0x80, 0x5e, 0xd1, 0x3c,
  0x1a, 0xcd, 0x66, 0xbe, 0xa8, 0x5d, 0x41, 0x3d, 0x88, 0x4c, 0x5f, 0x3e,
  0x4d, 0x27, 0x8b, 0x3e, 0x51, 0xbc, 0xef, 0xbd, 0x3a, 0x0b, 0x53, 0x3e,
  0x43, 0xa2, 0x29, 0xbe, 0x2e, 0x2b, 0x0b, 0xbd, 0x68, 0x04, 0x7a, 0x3e,
  0xec, 0x55, 0x93, 0xbe, 0xbb, 0x2f, 0x97, 0x3a, 0x86, 0x64, 0x5d, 0x3e,
  0x63, 0xf7, 0x99, 0x3d, 0x28, 0x83, 0xa1, 0x3d, 0xeb, 0x0a, 0x1e, 0x3e,
  0x5b, 0xbb, 0xd9, 0x3e, 0xc8, 0xe5, 0x16, 0x3d, 0x3f, 0x3a, 0x25, 0xbe,
  0xc7, 0x76, 0x29, 0x3e, 0xf8, 0xa7, 0x2b, 0x3e, 0xea, 0x89, 0x33, 0xbd,
  0xdb, 0xb5, 0xfa, 0x3c, 0x4a, 0x3c, 0xc3, 0x3e, 0x89, 0xaf, 0x8f, 0x3e,
  0x5f, 0xb7, 0xda, 0xbd, 0xc2, 0x3d, 0x0c, 0xbe, 0x58, 0x1f, 0x53, 0x3e,
  0x3c, 0x80, 0xcc, 0x3d, 0x8c, 0x6f, 0xbe, 0xbd, 0x4d, 0x6d, 0x4d, 0xbe,
  0x22, 0x5c, 0xb2, 0xbd, 0xda, 0x8e, 0x72, 0x3e, 0xf7, 0x58, 0xf9, 0x3d,
  0x1e, 0x1f, 0x06, 0xbe, 0x31, 0xcb, 0x96, 0x3e, 0xc3, 0x08, 0x89, 0xbe,
  0x40, 0xa8, 0x35, 0x3e, 0x8b, 0x7f, 0x9b, 0x3e, 0xac, 0x69, 0x55, 0xbe,
  0xda, 0xbf, 0x43, 0x3e, 0x40, 0x44, 0x71, 0xbc, 0x60, 0x5b, 0x55, 0xbe,
  0x59, 0x46, 0x92, 0xbe, 0xc0, 0xa9, 0x36, 0xbd, 0xd6, 0xcb, 0x66, 0x3e,
  0xe7, 0xe5, 0x4d, 0xbe, 0xa4, 0x20, 0x5c, 0xbe, 0xc6, 0xb0, 0xd2, 0xbd,
  0x88, 0xbd, 0x3d, 0x3d, 0xf3, 0x80, 0x20, 0xbe, 0x80, 0x1e, 0xc5, 0x3b,
  0xd0, 0x01, 0xe0, 0xbd, 0xa2, 0x98, 0xb8, 0xbd, 0x78, 0x44, 0x44, 0x3d,
  0x9f, 0x0b, 0x03, 0xbe, 0xa0, 0x0a, 0x96, 0x3c, 0x49, 0x62, 0x2b, 0xbe,
  0xb0, 0x0f, 0x84, 0xbc, 0xa0, 0x4a, 0xe5, 0xbc, 0xd2, 0xfc, 0x65, 0x3e,
  0x80, 0x35, 0xf9, 0xbd, 0xd1, 0x28, 0x87, 0x3e, 0x47, 0x8e, 0x25, 0xbe,
  0xfb, 0x9f, 0x97, 0x3e, 0x2b, 0xff, 0x2d, 0xbe, 0x8c, 0x37, 0xab, 0x3d,
  0x6f, 0x4a, 0xde, 0xbd, 0xd8, 0x27, 0xdf, 0xbe, 0x28, 0x9c, 0x5f, 0x3d,
  0x8f, 0x6e, 0xad, 0xbe, 0xfd, 0x81, 0x59, 0xbd, 0x07, 0x35, 0x3c, 0xbe,
  0x50, 0xa1, 0x48, 0x3e, 0x70, 0xa3, 0xc6, 0x3c, 0x86, 0x68, 0x22, 0x3d,
  0xeb, 0xa5, 0x11, 0x3d, 0xc0, 0xe0, 0x3b, 0xbd, 0x7b, 0x37, 0x03, 0xbe,
  0xd3, 0xf0, 0x29, 0xbe, 0xdf, 0x6b, 0xf6, 0xbc, 0xf3, 0xba, 0xa4, 0x3e,
  0x7e, 0x54, 0x23, 0x3e, 0xb2, 0x31, 0x5c, 0x3e, 0x9a, 0x80, 0x43, 0xbe,
  0x64, 0x5d, 0xb5, 0xbe, 0xa7, 0xe5, 0x17, 0xbf, 0xea, 0x5f, 0x9f, 0xbe,
  0xa0, 0x88, 0x1d, 0x3e, 0xeb, 0x4b, 0x00, 0x3e, 0x23, 0x1e, 0xc2, 0xbc,
  0xa5, 0x24, 0x68, 0xbe, 0x7c, 0xf9, 0xe7, 0xbe, 0xf1, 0x69, 0x65, 0xbe,
  0x3d, 0x7f, 0x3e, 0x3e, 0xf6, 0xf8, 0x5c, 0xbe, 0x47, 0x94, 0xe8, 0xbc,
  0x1c, 0x99, 0x8a, 0xbe, 0x0e, 0x86, 0x9c, 0xbd, 0xe1, 0xeb, 0x4e, 0x3e,
  0x44, 0xec, 0x11, 0xbe, 0x99, 0x9e, 0xfb, 0xbd, 0x54, 0xa9, 0xbb, 0xbb,
  0x23, 0x12, 0x28, 0x3e, 0xbc, 0xc7, 0x9b, 0xbd, 0x88, 0x15, 0x45, 0x3d,
  0x58, 0x06, 0x51, 0xbd, 0xf0, 0x23, 0xe2, 0x3d, 0xcd, 0x53, 0x04, 0xbe,
  0xf2, 0xa2, 0xe6, 0x3b, 0x98, 0x56, 0x72, 0xbe, 0x97, 0xf8, 0x98, 0x3e,
  0xa8, 0x5f, 0x24, 0x3e, 0x48, 0x8b, 0x5a, 0x3d, 0x01, 0xfa, 0xdc, 0xbd,
  0x96, 0x3a, 0x02, 0x3d, 0x92, 0x94, 0x69, 0x3e, 0x3c, 0xa1, 0x70, 0xbe,
  0x3b, 0x56, 0xcf, 0xbd, 0xc3, 0x4c, 0x40, 0x3e, 0xf3, 0xe0, 0x45, 0x3e,
  0x85, 0x05, 0x73, 0x3e, 0x3c, 0x00, 0xac, 0x3c, 0x4a, 0xef, 0x47, 0x3e,
  0x75, 0x0b, 0xcc, 0xbe, 0xa0, 0x21, 0x1f, 0x3d, 0xcc, 0xb6, 0x83, 0xbc,
  0x10, 0xff, 0x86, 0x3c, 0x8e, 0x4b, 0x24, 0xbe, 0xe2, 0xca, 0x0a, 0x3c,
  0x5b, 0x43, 0x94, 0xbe, 0x51, 0xad, 0x68, 0xbe, 0x4c, 0x08, 0x9d, 0x3d,
  0xb8, 0x1f, 0x75, 0xbd, 0x00, 0xd0, 0xe9, 0x39, 0x33, 0x18, 0x11, 0xbe,
  0x30, 0x80, 0x7a, 0x3d, 0x4e, 0x9d, 0xfe, 0xbd, 0x10, 0xae, 0xfe, 0xbc,
  0x87, 0xa6, 0x29, 0xbe, 0x1c, 0x62, 0xf0, 0x3d, 0x39, 0x50, 0x9c, 0xbe,
  0xb5, 0x0b, 0x9c, 0xbe, 0xd0, 0xf7, 0x94, 0xbe, 0x30, 0x13, 0xdc, 0xbc,
  0x86, 0x26, 0x6c, 0x3e, 0x68, 0x5a, 0x86, 0xbe, 0xe4, 0x2d, 0xe7, 0xbd,
  0x00, 0x98, 0x2f, 0x3b, 0x48, 0x80, 0x64, 0x3d, 0xe7, 0xc4, 0x87, 0xbe,
  0xa4, 0xd1, 0x5b, 0xbe, 0x0f, 0xce, 0x86, 0xbe, 0x4c, 0x88, 0x6d, 0xbe,
  0xc0, 0xdf, 0xd5, 0x3c, 0xf0, 0xaf, 0x6e, 0xbe, 0x1f, 0x58, 0x8c, 0x3e,
  0x2e, 0xf9, 0xa0, 0xbd, 0x74, 0x44, 0x63, 0xbe, 0x61, 0xaa, 0x82, 0x3e,
  0x60, 0x01, 0x76, 0xbd, 0x45, 0x12, 0x97, 0xbe, 0x98, 0x57, 0xf9, 0x3d,
  0xce, 0x27, 0x4b, 0x3e, 0xbd, 0x09, 0x64, 0x3e, 0x12, 0x39, 0xa4, 0xbd,
  0x9a, 0x2c, 0x4a, 0x3e, 0xeb, 0x21, 0x2e, 0xbe, 0xbb, 0x7f, 0x67, 0xbe,
  0xa4, 0xdf, 0x7c, 0xbe, 0xaa, 0x63, 0xad, 0xbd, 0x2b, 0x62, 0xea, 0x3d,
  0xfd, 0xe1, 0x56, 0x3e, 0x90, 0xd9, 0x56, 0x3a, 0x0e, 0x45, 0x54, 0x3e,
  0x7d, 0xc4, 0xb3, 0xbd, 0x28, 0x93, 0x2f, 0x3d, 0x53, 0x92, 0xa7, 0xbe,
  0xdf, 0xea, 0x4f, 0x3e, 0x7d, 0x1d, 0x87, 0xbe, 0x40, 0x51, 0x88, 0x3c,
  0xd0, 0x99, 0x99, 0x3c, 0xb8, 0x86, 0xea, 0xbd, 0xb0, 0x16, 0xa8, 0xbe,
  0x36, 0x19, 0x3c, 0xbd, 0x13, 0xd7, 0xb7, 0xbe, 0xe3, 0x9e, 0x85, 0xbe,
  0x17, 0x52, 0x01, 0x3f, 0x4e, 0x76, 0xed, 0x3d, 0x2b, 0x50, 0xfa, 0xbd,
  0xf3, 0x63, 0x93, 0x3d, 0x93, 0x53, 0x67, 0x3e, 0x81, 0x9b, 0x2d, 0x3e,
  0x28, 0xd3, 0x67, 0xbe, 0x1b, 0xa9, 0xbe, 0x3e, 0xa1, 0xb0, 0xe0, 0xbc,
  0x35, 0xf7, 0x23, 0xbe, 0xf2, 0xfb, 0x27, 0xbe, 0x53, 0x14, 0x7c, 0xbe,
  0x05, 0xa3, 0x06, 0x3d, 0xd7, 0x3b, 0x0a, 0xbe, 0x34, 0x72, 0xec, 0xbd,
  0xd4, 0xbd, 0xc0, 0x3d, 0x46, 0x4f, 0x96, 0x3d, 0x2a, 0xb2, 0x4c, 0x3e,
  0x02, 0x7f, 0xd9, 0x3e, 0x48, 0xaf, 0xd6, 0x3d, 0xc9, 0x8a, 0xb6, 0xbd,
  0x1b, 0x43, 0xde, 0xbe, 0x18, 0xfa, 0x84, 0x3e, 0xec, 0x4d, 0x78, 0x3e,
  0x00, 0x1e, 0xe6, 0x3d, 0x21, 0xee, 0x9f, 0x3c, 0x9f, 0x88, 0xa2, 0xbb,
  0xa3, 0xff, 0xd1, 0x3d, 0xcb, 0xa7, 0x03, 0x3e, 0xf4, 0x96, 0x2a, 0xbe,
  0x20, 0x71, 0x3c, 0x3e, 0xb3, 0x8e, 0x41, 0x3c, 0xd2, 0x47, 0x15, 0xbf,
  0x59, 0x27, 0x7d, 0xbd, 0x8e, 0x3b, 0x85, 0xbd, 0xca, 0x4c, 0x8f, 0x3e,
  0x2c, 0xbc, 0x8a, 0x3d, 0x5d, 0x20, 0x2b, 0x3d, 0xa8, 0x7d, 0xc2, 0x3b,
  0xec, 0xa9, 0xd2, 0x3e, 0x83, 0xfd, 0xa3, 0xbe, 0xb4, 0xec, 0x7c, 0xbe,
  0x6f, 0xc7, 0xd6, 0x3d, 0x92, 0xd8, 0xa3, 0x3d, 0xef, 0x23, 0xf6, 0x3d,
  0x2d, 0x47, 0x8a, 0x3e, 0xce, 0x1a, 0x4a, 0xbe, 0x84, 0xd9, 0x77, 0xbe,
  0x04, 0x2b, 0x99, 0xbd, 0x20, 0xd6, 0xa2, 0xbd, 0x5a, 0x38, 0x1c, 0xbf,
  0x50, 0x45, 0x1c, 0x3d, 0x51, 0x49, 0x8d, 0x3c, 0xfd, 0x57, 0x23, 0xbe,
  0x34, 0x8a, 0xa0, 0x3d, 0xd6, 0xe9, 0x0c, 0x3d, 0xea, 0x9f, 0x38, 0x3e,
  0x09, 0xac, 0xf2, 0x3d, 0x07, 0xa1, 0xc5, 0x3d, 0x69, 0xbb, 0x15, 0xbe,
  0x3c, 0x38, 0x08, 0xbe, 0xde, 0x48, 0xce, 0xbd, 0xf6, 0x53, 0x71, 0x3e,
  0x93, 0x92, 0x36, 0x3e, 0x50, 0xb4, 0xfc, 0xbd, 0x20, 0x57, 0x07, 0x3e,
  0xe2, 0x05, 0x0b, 0xbe, 0x81, 0x89, 0xf3, 0x3d, 0x18, 0xed, 0x39, 0xbd,
  0x07, 0xba, 0x2e, 0x3e, 0x48, 0x66, 0x02, 0xbd, 0x04, 0xd0, 0xe3, 0xbc,
  0x9e, 0x7f, 0x58, 0xbb, 0x1c, 0x07, 0x32, 0xbe, 0x21, 0xd2, 0x7c, 0xbd,
  0xf7, 0x08, 0x86, 0xbe, 0x02, 0x36, 0x87, 0xbe, 0xe1, 0xa4, 0x75, 0xbe,
  0x9e, 0x5f, 0x16, 0x3e, 0x4c, 0xc6, 0x9a, 0xbd, 0xe1, 0xf4, 0xd2, 0xbc,
  0x5e, 0xbf, 0x13, 0x3e, 0x8b, 0x99, 0x9e, 0x3e, 0xa0, 0xf3, 0x52, 0x3c,
  0x68, 0x37, 0xf8, 0x3d, 0x75, 0x70, 0x54, 0x3e, 0x0a, 0xe0, 0x54, 0x3d,
  0x22, 0xd5, 0xbb, 0x3d, 0xe9, 0xfa, 0x0b, 0xbe, 0x23, 0xc4, 0x2c, 0xbd,
  0x81, 0xe4, 0xf9, 0x3d, 0x98, 0xee, 0x73, 0x3e, 0xca, 0xe1, 0xca, 0xbe,
  0x16, 0xeb, 0xbf, 0xbe, 0xa1, 0x43, 0xa4, 0xbb, 0x72, 0xff, 0x2b, 0x3e,
  0x3b, 0xe4, 0x3e, 0xbd, 0x4a, 0x90, 0x82, 0x3d, 0xa6, 0xaf, 0x60, 0x3e,
  0x42, 0xe5, 0x5a, 0x3d, 0xde, 0xa1, 0x18, 0x3e, 0x82, 0xf5, 0xf3, 0x3c,
  0x73, 0xdf, 0x86, 0x3e, 0x19, 0x74, 0x58, 0x3d, 0x06, 0x49, 0x1f, 0xbe,
  0x7e, 0xbe, 0x31, 0x3e, 0x7b, 0xa6, 0x55, 0xbe, 0x68, 0xd6, 0x2c, 0xbd,
  0x74, 0x06, 0x81, 0xbe, 0x62, 0xaa, 0x15, 0x3e, 0xba, 0x4a, 0xb6, 0x3c,
  0xf6, 0x0e, 0xbc, 0xbd, 0x92, 0x7c, 0x46, 0xbe, 0x1e, 0x87, 0x75, 0xbe,
  0x09, 0x28, 0x08, 0x3e, 0x42, 0xdb, 0x0b, 0x3e, 0x00, 0xc5, 0x5f, 0xbe,
  0x19, 0xaa, 0x37, 0x3d, 0x9d, 0xde, 0xc8, 0xbd, 0x6a, 0xb0, 0x81, 0xba,
  0x50, 0x31, 0x4f, 0xbe, 0xff, 0x73, 0x71, 0xbe, 0x11, 0x5f, 0x34, 0x3e,
  0xad, 0xb3, 0xba, 0xbe, 0x5a, 0xdc, 0xac, 0xbc, 0xdd, 0x6d, 0x0a, 0xbe,
  0x01, 0xc2, 0xf7, 0x3c, 0x1f, 0x02, 0xac, 0xbe, 0x36, 0xa2, 0x56, 0xbe,
  0xea, 0xb4, 0x74, 0xbd, 0xb1, 0x23, 0x9a, 0x3e, 0x00, 0xc2, 0x87, 0xbc,
  0x08, 0x36, 0x99, 0x3d, 0x5c, 0x20, 0x1c, 0xbe, 0x89, 0xc1, 0x71, 0x3e,
  0x04, 0x3a, 0xe9, 0x3d, 0x34, 0x24, 0x82, 0x3d, 0xb0, 0x4b, 0xcc, 0xbc,
  0xa7, 0x54, 0x2c, 0xbe, 0xb8, 0x2c, 0x40, 0xbe, 0xe8, 0xa8, 0x05, 0x3e,
  0x6a, 0x11, 0x95, 0xbe, 0xf0, 0x94, 0x28, 0xbd, 0xf3, 0xd5, 0x2f, 0xbe,
  0xc4, 0x1d, 0x0f, 0x3e, 0xe6, 0x8f, 0x41, 0x3e, 0x22, 0x4d, 0xcd, 0xbd,
  0x58, 0x2b, 0xbe, 0xbd, 0x68, 0x14, 0x62, 0xbd, 0x1e, 0x35, 0x60, 0xbe,
  0x3f, 0xeb, 0x8f, 0xbe, 0x40, 0x60, 0x56, 0x3c, 0x03, 0x0a, 0x7c, 0xbe,
  0x56, 0x8a, 0x79, 0x3e, 0xfb, 0xd4, 0x8c, 0xbe, 0xf2, 0xea, 0x57, 0x3e,
  0x3d, 0x5d, 0x39, 0xbe, 0xca, 0x99, 0x0d, 0x3e, 0x60, 0x7b, 0xcf, 0x3c,
  0x6b, 0xcb, 0x36, 0xbe, 0x58, 0x17, 0x1b, 0x3e, 0x5a, 0xa7, 0x96, 0xbe,
  0xb2, 0x9c, 0x61, 0x3e, 0xfc, 0x2a, 0x20, 0x3e, 0xca, 0x80, 0x27, 0x3e,
  0xc4, 0x8d, 0x1e, 0x3e, 0xc7, 0x34, 0x8e, 0x3e, 0x0c, 0x63, 0x3e, 0xbe,
  0xb0, 0xca, 0xea, 0x3d, 0x04, 0x2c, 0x18, 0xbe, 0x56, 0xe6, 0xd4, 0xbd,
  0x16, 0x06, 0x7d, 0x3e, 0xb8, 0x68, 0x50, 0xbe, 0x44, 0x35, 0x85, 0x3d,
  0x61, 0xe6, 0x89, 0x3e, 0x20, 0x00, 0xa9, 0xbc, 0xc9, 0xa7, 0x32, 0xbe,
  0x12, 0x40, 0x7c, 0x3e, 0xf0, 0x0c, 0x6e, 0xbd, 0xbc, 0xee, 0x4c, 0xbe,
  0x74, 0x02, 0x8b, 0x3d, 0xaf, 0x60, 0x9c, 0xbe, 0x8e, 0xd7, 0xbc, 0xbd,
  0x11, 0x78, 0x93, 0x3e, 0xc0, 0x70, 0xea, 0xbb, 0x6d, 0x4b, 0x87, 0x3e,
  0x80, 0x19, 0x25, 0xbd, 0x9e, 0x00, 0xfe, 0xbd, 0x5e, 0xff, 0x65, 0x3e,
  0xe2, 0x5d, 0x3c, 0x3e, 0xea, 0xa0, 0x34, 0xbe, 0x7b, 0x77, 0x2c, 0xbe,
  0xe0, 0xe8, 0xd1, 0x3d, 0xcc, 0xae, 0x93, 0x3d, 0x2c, 0xf8, 0x52, 0xbe,
  0x34, 0x13, 0xf9, 0xbd, 0x20, 0x8d, 0x99, 0xbe, 0x1e, 0xcb, 0x76, 0xbe,
  0x40, 0x2a, 0x76, 0xbd, 0x62, 0x97, 0xc9, 0xbd, 0xb6, 0x7f, 0x7d, 0x3e,
  0xd2, 0xde, 0xca, 0xbd, 0x52, 0x45, 0x5d, 0x3d, 0xc5, 0x94, 0x87, 0xbe,
  0xf5, 0xd8, 0x0b, 0xbe, 0x10, 0x4e, 0x8e, 0x3e, 0xf0, 0x1e, 0xc2, 0xbd,
  0xb5, 0x61, 0x06, 0xbe, 0x40, 0xd4, 0x91, 0xbd, 0x79, 0xa1, 0x83, 0xbe,
  0x6d, 0xde, 0x39, 0xbe, 0x20, 0x95, 0xd0, 0x3d, 0x23, 0x0e, 0x88, 0x3e,
  0x99, 0x85, 0xec, 0x3c, 0x0a, 0xfa, 0xa4, 0xbd, 0x43, 0xe0, 0x40, 0xbe,
  0x46, 0x7f, 0x0c, 0x3e, 0xb9, 0x00, 0x08, 0xbe, 0x12, 0x7e, 0xe8, 0xbd,
  0xc3, 0xf7, 0xfe, 0xbd, 0xe7, 0x60, 0x0b, 0xbe, 0x5e, 0x76, 0x4d, 0xbe,
  0x7f, 0x35, 0x53, 0x3e, 0xd0, 0x4d, 0x78, 0xbe, 0xe0, 0xaf, 0xe3, 0x3d,
  0xf2, 0x49, 0x1f, 0xbc, 0xb8, 0x59, 0x0d, 0x3e, 0x8e, 0xe7, 0x74, 0x3e,
  0x1c, 0x4d, 0xf9, 0xbd, 0x2b, 0x6f, 0x06, 0xbe, 0x71, 0x82, 0x89, 0x3d,
  0x9e, 0x1a, 0x91, 0x3d, 0x32, 0x21, 0x9b, 0xbd, 0x50, 0x6c, 0xf6, 0xbc,
  0xd2, 0xf2, 0x7d, 0x3e, 0xdc, 0x09, 0x07, 0x3e, 0x28, 0xf9, 0xad, 0xbd,
  0x00, 0x92, 0x24, 0xbe, 0x0a, 0xf9, 0xb0, 0xbd, 0x54, 0xa2, 0xa6, 0xbd,
  0xc4, 0x10, 0xa9, 0xbd, 0x6c, 0xb5, 0xc5, 0x3d, 0x02, 0x3f, 0x3d, 0xbe,
  0x9e, 0xb8, 0x3f, 0x3e, 0x90, 0x4d, 0xe9, 0xbd, 0xf2, 0xc9, 0xc2, 0xbd,
  0xd8, 0x88, 0x02, 0xbd, 0x80, 0xb8, 0x53, 0x3c, 0x16, 0xff, 0x06, 0x3e,
  0x3a, 0x5d, 0x5e, 0xbe, 0x0c, 0xb0, 0x0f, 0x3e, 0xb0, 0xb6, 0x83, 0x3d,
  0x7e, 0xa5, 0x8c, 0xbe, 0x0c, 0xdf, 0xbf, 0xbd, 0x38, 0x15, 0xe1, 0x3d,
  0xb2, 0x02, 0x87, 0xbe, 0x48, 0xc1, 0x63, 0x3d, 0x60, 0x3a, 0x68, 0xbc,
  0x70, 0x9d, 0xaa, 0xbc, 0x00, 0x3f, 0x7a, 0xbe, 0xd3, 0x1b, 0x2d, 0xbe,
  0xf2, 0x1b, 0x8b, 0xbe, 0xc7, 0x66, 0x1f, 0xbe, 0x1c, 0x3d, 0x28, 0x3e,
  0x7a, 0x69, 0x9c, 0xbe, 0xff, 0x42, 0x24, 0x3e, 0x53, 0x7c, 0x8d, 0xbe,
  0x83, 0x75, 0x6a, 0xbe, 0x64, 0x83, 0x8d, 0xbe, 0x5b, 0x72, 0x9e, 0xbd,
  0xe9, 0x41, 0x15, 0xbe, 0x40, 0x63, 0xd8, 0x3b, 0x85, 0xfc, 0x22, 0x3e,
  0x7f, 0x44, 0x84, 0x3e, 0xec, 0x47, 0x42, 0x3e, 0x7c, 0x48, 0xfd, 0xbd,
  0x15, 0x41, 0x5c, 0xbe, 0xe8, 0x60, 0x22, 0x3d, 0xc7, 0xdd, 0xc0, 0xbe,
  0xa0, 0xd6, 0x84, 0x3d, 0x61, 0x40, 0x0d, 0x3e, 0x22, 0x5d, 0x4d, 0x3e,
  0xd6, 0x94, 0xb0, 0xbd, 0xee, 0xb0, 0xb9, 0x3d, 0x0d, 0x9c, 0xba, 0x3d,
  0xd1, 0x58, 0xed, 0x3c, 0xd4, 0xdd, 0xba, 0xbe, 0x45, 0x7b, 0x45, 0xbd,
  0x69, 0x5b, 0x09, 0xbe, 0x54, 0x02, 0x1b, 0xbd, 0xc4, 0x42, 0xa3, 0x3e,
  0x7b, 0x32, 0xc2, 0x3c, 0x3a, 0xd0, 0xb5, 0x3d, 0xcf, 0x20, 0x48, 0xbc,
  0x3c, 0xfc, 0x7f, 0xbe, 0xd0, 0x37, 0xb4, 0x3d, 0xc7, 0xa9, 0x20, 0xbe,
  0x7d, 0xa1, 0x72, 0x3e, 0xde, 0x16, 0x58, 0xbd, 0x40, 0xe7, 0x66, 0x3e,
  0x97, 0x36, 0xe7, 0x3d, 0xc2, 0x4e, 0x54, 0xbe, 0x17, 0x5d, 0xba, 0xbe,
  0x2a, 0xa0, 0x95, 0xbe, 0xc4, 0x0b, 0x71, 0xbe, 0xfb, 0x09, 0x92, 0x3e,
  0x9b, 0x31, 0xde, 0x3d, 0x75, 0x85, 0x90, 0x3e, 0x02, 0x1e, 0x22, 0xbe,
  0x2d, 0x78, 0xb0, 0x3d, 0xed, 0x66, 0x06, 0x3e, 0xd5, 0x02, 0x4a, 0xbe,
  0x8b, 0x74, 0xa6, 0x3d, 0x25, 0x43, 0x7b, 0x3b, 0xe4, 0x86, 0x9f, 0x3e,
  0x87, 0xe4, 0x86, 0x3d, 0x61, 0xd5, 0x66, 0x3d, 0x7b, 0x49, 0x73, 0xbe,
  0x7b, 0x1e, 0x9e, 0x3d, 0xd6, 0xe5, 0x0a, 0xbd, 0xac, 0x01, 0xea, 0x3d,
  0x8d, 0xa6, 0x46, 0xbe, 0x7b, 0x93, 0x99, 0x3d, 0x95, 0x71, 0x8d, 0x3e,
  0x92, 0x94, 0x43, 0xbc, 0x70, 0xd1, 0x8c, 0x3e, 0x7b, 0x32, 0x3c, 0x3d,
  0xd7, 0x72, 0x42, 0x3e, 0x68, 0x10, 0x60, 0x3d, 0x82, 0x8f, 0x03, 0x3e,
  0xe8, 0x12, 0xf2, 0xbd, 0xc0, 0x45, 0x9a, 0xbb, 0xe8, 0x9c, 0x85, 0xbe,
  0xe7, 0x88, 0x70, 0xbe, 0xa0, 0x95, 0x34, 0xbe, 0x9c, 0xac, 0x38, 0x3e,
  0xb5, 0x01, 0x9c, 0xbe, 0x36, 0x32, 0x8e, 0xbe, 0x00, 0x4c, 0x73, 0xbe,
  0x4a, 0x5a, 0x84, 0xbe, 0x91, 0xa1, 0x1d, 0xbe, 0x2e, 0xbe, 0x23, 0x3e,
  0x60, 0xa4, 0xdb, 0xbc, 0x1a, 0xbb, 0xd9, 0xbd, 0x53, 0x31, 0x81, 0x3e,
  0x88, 0x05, 0x1f, 0x3d, 0x5d, 0x53, 0x85, 0xbe, 0xbd, 0xe0, 0x0c, 0xbe,
  0x30, 0x7c, 0x98, 0x3d, 0x2c, 0x9c, 0x21, 0xbe, 0xd0, 0x63, 0xa2, 0xbc,
  0x0e, 0xf1, 0xc9, 0xbd, 0x79, 0xf2, 0x77, 0xbe, 0x00, 0x57, 0x84, 0xba,
  0x70, 0x80, 0xb8, 0x3c, 0xf8, 0x9b, 0x6a, 0x3d, 0x93, 0xf4, 0x3d, 0xbe,
  0xea, 0x11, 0x72, 0x3e, 0x22, 0x0a, 0x3f, 0x3e, 0x46, 0xbc, 0x78, 0x3e,
  0x12, 0x92, 0x88, 0xbd, 0xd1, 0x94, 0x77, 0xbe, 0x05, 0x43, 0x5c, 0x3e,
  0xbf, 0xeb, 0xb3, 0x3d, 0x26, 0x1b, 0x8a, 0xbd, 0x00, 0x99, 0xc2, 0xbd,
  0xb3, 0x44, 0xb0, 0xbe, 0xe4, 0x0c, 0x66, 0xbe, 0xfc, 0x62, 0xb5, 0xbd,
  0xdc, 0x6e, 0x53, 0x3e, 0xe4, 0x44, 0xe7, 0xbe, 0xb0, 0x5d, 0xa3, 0x3c,
  0x2d, 0x8b, 0x36, 0x3e, 0xc0, 0x33, 0x48, 0x3e, 0xa0, 0xb0, 0x6c, 0x3c,
  0xd5, 0xf7, 0xd0, 0x3d, 0x31, 0x0e, 0x10, 0x3d, 0x94, 0x6d, 0x5b, 0x3d,
  0x72, 0x87, 0x32, 0xbc, 0xfc, 0x13, 0xe5, 0xbe, 0x30, 0x3d, 0xdf, 0xbb,
  0x02, 0xa1, 0xca, 0x3d, 0x57, 0x5b, 0x64, 0x3d, 0x22, 0xac, 0x06, 0x3e,
  0xa7, 0xcb, 0x8d, 0xbe, 0xcb, 0x86, 0x02, 0x3e, 0x9b, 0xf7, 0x51, 0xbe,
  0xb4, 0x43, 0xa6, 0xbe, 0x84, 0x6e, 0xff, 0x3d, 0x0e, 0x6e, 0x27, 0xbd,
  0xb2, 0xc9, 0x07, 0x3c, 0xfc, 0x70, 0x0a, 0xbf, 0x16, 0x02, 0x2d, 0xbe,
  0x38, 0xb1, 0xa8, 0x3e, 0xec, 0x30, 0x45, 0xbe, 0x38, 0x56, 0x52, 0xbe,
  0x28, 0x97, 0x69, 0xbd, 0x9a, 0x21, 0x90, 0xbe, 0x13, 0x81, 0x71, 0xbe,
  0x0e, 0x5c, 0x5e, 0x3e, 0xf5, 0xbf, 0xbe, 0xbc, 0x03, 0x04, 0x22, 0x3d,
  0x7d, 0x52, 0xb6, 0x3e, 0x68, 0x67, 0x7c, 0x3d, 0x67, 0xa6, 0xc7, 0x3d,
  0x01, 0x15, 0x9f, 0xbd, 0x07, 0x8e, 0x18, 0xbe, 0x5b, 0xad, 0x21, 0x3e,
  0xce, 0x4e, 0x4a, 0x3e, 0x2e, 0xcb, 0xda, 0xbd, 0x80, 0xc7, 0x31, 0xbc,
  0x70, 0x66, 0x5f, 0xbe, 0xd6, 0xf1, 0x6d, 0xbe, 0x26, 0x8d, 0xaf, 0xbd,
  0x3b, 0xd1, 0xbb, 0xbe, 0xc0, 0xca, 0x80, 0x3e, 0x81, 0xc9, 0x64, 0x3e,
  0xef, 0xa0, 0x9a, 0x3c, 0xf2, 0xbf, 0x32, 0x3e, 0x8a, 0x45, 0x6c, 0x3e,
  0xcd, 0x4f, 0x6b, 0x3e, 0xef, 0xf4, 0xb5, 0x3d, 0x12, 0x64, 0x9a, 0xbe,
  0xc4, 0x0d, 0xdb, 0xbc, 0x7e, 0xf6, 0xff, 0xff, 0x04, 0x00, 0x00, 0x00,
  0x00, 0x08, 0x00, 0x00, 0xe5, 0x95, 0x0c, 0x3f, 0x2f, 0x79, 0x91, 0xbe,
  0x4c, 0x06, 0x0a, 0x3e, 0x1d, 0x44, 0xba, 0xbe, 0xb4, 0x42, 0xe2, 0x3d,
  0x5b, 0x1e, 0x22, 0x3e, 0xb7, 0x1d, 0x5f, 0xbe, 0xeb, 0x2f, 0xca, 0xbc,
  0xe1, 0xf3, 0xd7, 0x3d, 0x9b, 0x7d, 0x98, 0x3e, 0x94, 0x99, 0x0f, 0xbe,
  0x80, 0xeb, 0x11, 0xbe, 0xd2, 0xc9, 0x05, 0xbe, 0x24, 0x13, 0x72, 0xbe,
  0x26, 0x02, 0x5f, 0x3e, 0x23, 0x9c, 0x8d, 0x3e, 0x8f, 0x3a, 0x61, 0xbe,
  0x20, 0xed, 0x33, 0x3d, 0x1e, 0x3f, 0x1b, 0x3d, 0x1f, 0x9f, 0xa6, 0x3e,
  0xb5, 0xfc, 0xf5, 0xba, 0x29, 0x3e, 0xc1, 0x3d, 0xd8, 0xda, 0x33, 0x3e,
  0xec, 0x68, 0xda, 0x3d, 0xc0, 0x8b, 0x94, 0xbe, 0x2f, 0x6b, 0x18, 0xbe,
  0xf3, 0x8e, 0x9f, 0x3e, 0x59, 0xd3, 0x0c, 0x3d, 0xe7, 0xd6, 0x4c, 0x3d,
  0x00, 0xd0, 0x0a, 0x3a, 0xd9, 0xaf, 0x3e, 0xbe, 0x5a, 0x79, 0xa1, 0xbe,
  0xb6, 0x03, 0x0b, 0xbe, 0x53, 0x52, 0x8f, 0xbe, 0xe2, 0xeb, 0xed, 0xbd,
  0x3a, 0x09, 0x6d, 0xbe, 0x0f, 0xb4, 0x8d, 0xbe, 0x68, 0x15, 0x5e, 0x3d,
  0x24, 0x6a, 0x8d, 0x3d, 0x31, 0x63, 0x6c, 0xbe, 0xfa, 0xa9, 0x5e, 0x3e,
  0x88, 0x46, 0x9d, 0x3d, 0x36, 0x83, 0x2c, 0x3e, 0xa3, 0x19, 0x2c, 0xbe,
  0x3c, 0x3d, 0xb9, 0xbd, 0x06, 0x59, 0x58, 0x3e, 0x28, 0x80, 0x9a, 0xbd,
  0x80, 0xfb, 0xec, 0x3d, 0x3c, 0xd0, 0xa6, 0xbe, 0xb3, 0xc6, 0x63, 0xbe,
  0x92, 0xee, 0x6e, 0xbe, 0x50, 0x9e, 0xb6, 0xbd, 0x38, 0x99, 0xfe, 0x3d,
  0xa2, 0xca, 0x5a, 0xbe, 0x58, 0xbd, 0xa5, 0xbe, 0x8e, 0xb3, 0x2e, 0x3e,
  0xa0, 0x66, 0x38, 0xbd, 0x18, 0x3e, 0x06, 0x3e, 0xa8, 0xb2, 0x9c, 0xbd,
  0xbe, 0x7d, 0x7c, 0x3e, 0x91, 0x45, 0xb2, 0x3e, 0xf0, 0x90, 0xa3, 0x3c,
  0x58, 0x0e, 0x6b, 0x3d, 0x00, 0x58, 0x11, 0xbc, 0xa9, 0x08, 0x0d, 0x3d,
  0x70, 0x3f, 0xd3, 0x3d, 0xdb, 0xe6, 0xa2, 0xbe, 0x3b, 0x51, 0x11, 0xbe,
  0xe2, 0xb9, 0x56, 0x3e, 0x90, 0xdc, 0x94, 0xbe, 0x56, 0x44, 0x47, 0x3e,
  0x23, 0xaa, 0xf9, 0xbd, 0x98, 0x41, 0xae, 0x3d, 0x14, 0x71, 0x30, 0x3e,
  0xc4, 0xcb, 0xc7, 0xbd, 0x9e, 0xc6, 0x7a, 0x3e, 0x15, 0xe0, 0x36, 0xbe,
  0x78, 0x11, 0x11, 0xbd, 0x60, 0xc9, 0x15, 0x3c, 0xe9, 0x6d, 0xda, 0xbd,
  0x26, 0x71, 0x16, 0x3c, 0x1b, 0x0b, 0x65, 0xbe, 0x59, 0x16, 0x8a, 0x3d,
  0x94, 0x0e, 0x52, 0xbe, 0x30, 0x06, 0xb7, 0xbe, 0x71, 0xdf, 0xcf, 0xbe,
  0x7c, 0x39, 0x1a, 0xbe, 0x00, 0xbf, 0x7c, 0xbb, 0x35, 0xba, 0x64, 0xbe,
  0xea, 0x33, 0x66, 0xba, 0x50, 0x52, 0x17, 0xbe, 0x87, 0xa0, 0x4a, 0xbd,
  0x42, 0x22, 0x0f, 0xbe, 0xe8, 0x88, 0x82, 0xbe, 0xd4, 0xc3, 0x9b, 0x3d,
  0xfe, 0x6e, 0x5f, 0xbc, 0xb9, 0x63, 0x8f, 0x3e, 0x65, 0xe0, 0xb1, 0xbe,
  0x08, 0x40, 0x6b, 0xbd, 0xd9, 0x46, 0x0a, 0xbe, 0x90, 0x14, 0xae, 0xbe,
  0xf2, 0xee, 0x05, 0x3e, 0xaa, 0x57, 0x9b, 0xbe, 0xe0, 0xa8, 0x8c, 0xbd,
  0xe2, 0xed, 0x4c, 0x3e, 0xb0, 0x55, 0xc2, 0xbd, 0xc0, 0x97, 0xdd, 0xbb,
  0xe6, 0x32, 0x36, 0x3e, 0xe8, 0xb2, 0xc5, 0xbd, 0xb9, 0x46, 0x00, 0xbe,
  0xe7, 0xd4, 0x8e, 0x3e, 0xc6, 0x56, 0xe3, 0xbd, 0x64, 0xdf, 0x80, 0x3d,
  0x7f, 0x18, 0x76, 0xbe, 0x98, 0x5c, 0x6e, 0xbe, 0xc8, 0xbc, 0xa5, 0xbe,
  0xd7, 0x62, 0xa6, 0xbe, 0xed, 0x71, 0x43, 0xbe, 0xda, 0x91, 0xa8, 0xbe,
  0xc0, 0xfc, 0xae, 0xbb, 0x57, 0x6d, 0x52, 0xbe, 0x28, 0x90, 0xd4, 0xbd,
  0x98, 0x2c, 0x3a, 0xbd, 0x74, 0x8c, 0x12, 0x3e, 0x46, 0xb5, 0xa8, 0xbe,
  0x28, 0xf4, 0x94, 0xbe, 0xb2, 0xdc, 0x7e, 0xbe, 0xe0, 0xeb, 0x3a, 0xbd,
  0x5b, 0xdf, 0xeb, 0x3e, 0x3f, 0x2b, 0x3b, 0xbe, 0xf5, 0xc4, 0x26, 0x3e,
  0xf6, 0x23, 0x98, 0x3e, 0x12, 0xd1, 0xab, 0xbe, 0xc0, 0x6c, 0x4c, 0xbd,
  0x05, 0x81, 0x7d, 0x3d, 0x08, 0xce, 0x90, 0x3e, 0x64, 0x4c, 0x52, 0x3e,
  0x7f, 0x59, 0xfc, 0x3c, 0xdf, 0xfe, 0xb5, 0xbe, 0xe1, 0x89, 0x49, 0xbe,
  0xe1, 0x0b, 0xb4, 0x3e, 0x9e, 0x11, 0x78, 0xbe, 0x80, 0xb0, 0x72, 0x3c,
  0xef, 0x0a, 0x89, 0x3e, 0x05, 0x63, 0x94, 0x3e, 0xdd, 0x5b, 0xa3, 0x3e,
  0xfc, 0x1c, 0x93, 0x3e, 0xd1, 0xf7, 0xc8, 0x3c, 0x44, 0x5a, 0x5b, 0x3e,
  0xfd, 0x68, 0x4d, 0xbd, 0x86, 0xfb, 0xae, 0x3d, 0xe8, 0xa4, 0x1f, 0x3d,
  0xc0, 0xd4, 0x6f, 0xbd, 0x50, 0x9a, 0x3f, 0xbd, 0x27, 0xeb, 0x94, 0x3e,
  0x79, 0x2b, 0xcc, 0x3d, 0xbd, 0x09, 0x0f, 0x3e, 0xca, 0x89, 0x04, 0x3e,
  0xbd, 0x6e, 0x93, 0xbe, 0x93, 0xf7, 0x35, 0x3e, 0x2e, 0x93, 0x6e, 0x3e,
  0xec, 0x8b, 0x32, 0xbd, 0xcd, 0xca, 0x01, 0x3e, 0xc1, 0x7f, 0x0a, 0x3e,
  0xd2, 0x78, 0xa3, 0xbe, 0x8d, 0x9b, 0xa8, 0xbe, 0xc0, 0x5d, 0x07, 0xbe,
  0xe4, 0xd5, 0x4b, 0x3e, 0xb8, 0xc2, 0x32, 0x3d, 0xbc, 0xcf, 0x8e, 0x3c,
  0x27, 0x01, 0xa9, 0xbc, 0x24, 0x77, 0x6b, 0xbe, 0xd2, 0x8c, 0x7c, 0x3e,
  0xed, 0x63, 0x42, 0x3c, 0xc7, 0x73, 0x37, 0xbe, 0x25, 0x1a, 0x53, 0x3e,
  0x65, 0x3d, 0xa8, 0xbe, 0xcd, 0x39, 0x4b, 0xbe, 0x10, 0x29, 0x1e, 0x3e,
  0x30, 0xf0, 0xb1, 0xbe, 0x48, 0xfa, 0x82, 0xbe, 0x7e, 0x99, 0xb0, 0xbb,
  0x70, 0x63, 0xb1, 0x3c, 0xe6, 0x39, 0x99, 0xbe, 0x50, 0xbf, 0xc1, 0x3c,
  0x3b, 0x59, 0x80, 0xbe, 0x64, 0xcf, 0x0d, 0xbe, 0x6e, 0xfd, 0xc7, 0xbe,
  0x1f, 0x70, 0xcd, 0xbe, 0xd2, 0x6b, 0x43, 0x3e, 0x94, 0xbc, 0x00, 0x3d,
  0x92, 0x4d, 0x06, 0x3d, 0x4c, 0x13, 0xd2, 0x3e, 0xdf, 0xa1, 0x1e, 0x3e,
  0xf4, 0x01, 0xd3, 0x3d, 0x35, 0x06, 0xb0, 0xbd, 0x60, 0xbb, 0x07, 0xbf,
  0x66, 0xd2, 0xff, 0x3d, 0xf6, 0x8f, 0x9a, 0xbd, 0x70, 0x94, 0xef, 0xbe,
  0xc4, 0x3a, 0xf2, 0x3d, 0x08, 0x82, 0x1b, 0x3e, 0x68, 0x6a, 0xfb, 0xbd,
  0xb7, 0x9f, 0x0b, 0xbd, 0xc0, 0x49, 0xae, 0x3b, 0xd6, 0xc4, 0x2e, 0x3e,
  0xce, 0x96, 0xaa, 0xbe, 0x30, 0x07, 0xc4, 0x3e, 0x20, 0xef, 0x73, 0xbe,
  0x12, 0xae, 0x97, 0xbe, 0x90, 0x61, 0xb4, 0xbe, 0x51, 0x1d, 0x9e, 0xbc,
  0x3f, 0x0a, 0x0a, 0xbd, 0x92, 0x15, 0x1c, 0x3e, 0xae, 0xf1, 0x9d, 0xba,
  0x4e, 0x9d, 0x0c, 0xbe, 0xa4, 0xc1, 0xc4, 0x3d, 0xc0, 0xe1, 0x2e, 0x3d,
  0xc5, 0x2c, 0xa6, 0xbe, 0x9d, 0x0b, 0x83, 0xbd, 0xfa, 0x56, 0x90, 0xbe,
  0xfd, 0x54, 0x8e, 0x3e, 0x51, 0x7f, 0x42, 0x3e, 0x65, 0x33, 0xab, 0x3c,
  0xaa, 0xcc, 0x23, 0xbe, 0xf4, 0x1a, 0x45, 0x3c, 0xb2, 0x9a, 0xb2, 0xbb,
  0x41, 0x8e, 0x29, 0xbd, 0x89, 0xe4, 0x0d, 0x3e, 0x0d, 0x03, 0x32, 0x3e,
  0xd8, 0x4b, 0x19, 0x3d, 0x98, 0x62, 0xd5, 0x3d, 0x50, 0xaf, 0xe4, 0x3d,
  0x62, 0xdd, 0x26, 0x3e, 0x2a, 0x17, 0xbf, 0xbe, 0x0e, 0x85, 0x47, 0x3e,
  0xf4, 0xca, 0xfa, 0x3d, 0xde, 0x50, 0xd3, 0xbd, 0x1a, 0x77, 0x36, 0x3e,
  0x32, 0x2b, 0x89, 0x3e, 0xbf, 0x33, 0x60, 0xbe, 0x90, 0xc1, 0x50, 0xbe,
  0x33, 0x1c, 0x8c, 0xbe, 0x11, 0x58, 0xce, 0xbe, 0xad, 0x6f, 0x6c, 0xbd,
  0x9b, 0x27, 0x65, 0xbd, 0x40, 0x19, 0xa4, 0x3d, 0x22, 0xb4, 0x98, 0xbe,
  0x38, 0xb5, 0x8f, 0xbe, 0x98, 0x03, 0xb2, 0xbe, 0xb0, 0x03, 0x36, 0xbd,
  0xd5, 0x65, 0x80, 0x3c, 0xc0, 0x25, 0x1c, 0xbe, 0x4e, 0xe9, 0x02, 0x3e,
  0x35, 0xf0, 0xa0, 0xbe, 0xbf, 0x05, 0x79, 0x3e, 0x3b, 0x0e, 0xfd, 0x3e,
  0x67, 0x82, 0x4d, 0x3e, 0xfc, 0xbd, 0x8b, 0xbd, 0x4e, 0x9c, 0xd7, 0xbd,
  0xad, 0xa3, 0xea, 0x3d, 0x9c, 0xaf, 0x3a, 0xbe, 0xbb, 0x0a, 0x56, 0x3d,
  0x4b, 0xff, 0xfa, 0xbd, 0xf4, 0xb4, 0xf6, 0xbd, 0x37, 0x8d, 0xbc, 0x3e,
  0x86, 0x4f, 0x2d, 0xbe, 0x07, 0x9b, 0x5f, 0x3e, 0x97, 0x5a, 0xae, 0xbe,
  0x0c, 0x8b, 0x64, 0x3e, 0x40, 0x89, 0x9b, 0x3b, 0x84, 0x05, 0xac, 0x3b,
  0x63, 0xfb, 0x03, 0x3d, 0xdc, 0xa0, 0x86, 0xbe, 0xd8, 0x41, 0x5c, 0xbe,
  0x70, 0xa3, 0x38, 0xbd, 0x8d, 0x5a, 0x6a, 0xbd, 0x94, 0x59, 0x8d, 0xbc,
  0x21, 0xe1, 0xd0, 0xbd, 0xe1, 0x2d, 0x81, 0x3e, 0x8a, 0x4b, 0xed, 0xbd,
  0xc6, 0xfd, 0xfa, 0x3d, 0x90, 0xc4, 0xe9, 0xbc, 0x0d, 0x95, 0x32, 0x3d,
  0xc4, 0x02, 0x1d, 0x3d, 0x65, 0x5e, 0x98, 0x3e, 0x6a, 0xc4, 0x28, 0x3e,
  0xfc, 0x8b, 0x17, 0x3e, 0xc2, 0xe0, 0xad, 0xbe, 0x11, 0xbc, 0xff, 0xbd,
  0x24, 0x58, 0x68, 0xbe, 0x92, 0x19, 0xa0, 0x3e, 0x9b, 0x3d, 0x0a, 0x3e,
  0xd3, 0x1c, 0xa5, 0xbe, 0xfd, 0xcd, 0xd7, 0x3c, 0x73, 0xc8, 0xac, 0xbb,
  0xd5, 0x71, 0x02, 0x3c, 0xe9, 0x1c, 0x2e, 0xbf, 0x1f, 0xd7, 0xb0, 0xbd,
  0x6c, 0x1a, 0x86, 0xbd, 0x7c, 0x68, 0xbd, 0x3d, 0xc5, 0x4a, 0xa0, 0x3e,
  0x96, 0xda, 0xa6, 0xbe, 0x2e, 0x7f, 0x13, 0x3e, 0x6a, 0xe6, 0x92, 0xbc,
  0x26, 0x24, 0x42, 0xbe, 0x32, 0x60, 0xa3, 0xbe, 0xe6, 0xcc, 0x30, 0x3e,
  0x44, 0xec, 0x8d, 0x3e, 0x1c, 0xc8, 0x69, 0x3e, 0xfe, 0xc5, 0x94, 0xbd,
  0xc0, 0xd3, 0x9e, 0xbd, 0xc0, 0x23, 0x41, 0x3c, 0xb2, 0x49, 0x98, 0x3d,
  0xaa, 0x7e, 0x45, 0xbe, 0x3c, 0x70, 0xc3, 0x3e, 0x5d, 0xa2, 0x16, 0xbd,
  0x54, 0x8a, 0xd7, 0xbd, 0xf8, 0xc2, 0x05, 0x3d, 0xca, 0x15, 0xc1, 0xbe,
  0x35, 0x01, 0x26, 0xbe, 0x09, 0xb2, 0x41, 0xbe, 0xa8, 0x0a, 0x34, 0xbd,
  0x8a, 0xd7, 0xac, 0x3d, 0x07, 0xe2, 0xbe, 0xbe, 0xfa, 0x86, 0x49, 0xbe,
  0x79, 0x7a, 0xb0, 0x3d, 0x37, 0x0b, 0x0c, 0xbe, 0x33, 0xf3, 0x35, 0xbe,
  0xfa, 0xea, 0x89, 0x3b, 0xb2, 0x99, 0x72, 0xbe, 0x77, 0xa9, 0x70, 0xbe,
  0xa4, 0x9f, 0x8c, 0xbd, 0x3c, 0x56, 0x8e, 0x3e, 0x78, 0x5d, 0x74, 0xbe,
  0xde, 0x7c, 0x77, 0x3e, 0x1b, 0xef, 0x16, 0xbe, 0xcb, 0xb1, 0x96, 0x3e,
  0x2d, 0x02, 0xb8, 0xbe, 0x92, 0x74, 0x30, 0x3e, 0xa0, 0x9e, 0x0c, 0xbd,
  0xcf, 0x2d, 0x92, 0x3e, 0x74, 0x6e, 0xd0, 0xbd, 0xa6, 0x31, 0x43, 0x3e,
  0x3c, 0x2e, 0xf7, 0x3d, 0xda, 0xbd, 0x14, 0x3e, 0x33, 0x5e, 0x92, 0x3e,
  0x20, 0x96, 0x3b, 0xbe, 0xcd, 0xa6, 0x80, 0xbe, 0xb2, 0x25, 0x29, 0x3e,
  0x9d, 0x31, 0xed, 0xbd, 0xe6, 0x02, 0x8d, 0xbe, 0x40, 0xff, 0x0d, 0x3e,
  0x99, 0xc9, 0x80, 0xbe, 0x30, 0x69, 0x55, 0xbe, 0x60, 0x59, 0x99, 0xbd,
  0xcf, 0xe7, 0xbc, 0x3e, 0x3c, 0x21, 0xe8, 0xbe, 0xfe, 0xee, 0x77, 0x3d,
  0xd4, 0x1e, 0x3c, 0xbe, 0x21, 0xd5, 0xaf, 0x3d, 0x2c, 0x5a, 0xa2, 0x3e,
  0xca, 0x4d, 0x2f, 0xbf, 0xdf, 0x01, 0x7b, 0x3d, 0xd1, 0x7f, 0x92, 0xbe,
  0x71, 0x5a, 0x93, 0xbe, 0x6d, 0x18, 0x92, 0x3e, 0xd3, 0x71, 0x82, 0x3e,
  0x0d, 0x6e, 0xdf, 0xbe, 0x5e, 0x0a, 0x82, 0xbe, 0x54, 0x34, 0x77, 0xbe,
  0x9e, 0x1f, 0x28, 0x3e, 0xe3, 0x4d, 0x00, 0xbe, 0xff, 0x42, 0x89, 0x3e,
  0x66, 0x18, 0x12, 0x3e, 0x96, 0xc4, 0x6a, 0x3e, 0x59, 0x5d, 0xb3, 0xbe,
  0x9f, 0xec, 0x0f, 0x3d, 0x97, 0x5f, 0xab, 0xbe, 0xd7, 0xd5, 0x98, 0x3e,
  0x73, 0xca, 0x94, 0xbe, 0x10, 0x6a, 0x88, 0xbc, 0xbc, 0x20, 0x73, 0x3d,
  0x53, 0xf4, 0x5d, 0x3d, 0x90, 0x77, 0x87, 0x3d, 0x7d, 0xc4, 0xa8, 0xbe,
  0xd0, 0xd8, 0x8a, 0xbc, 0xd8, 0x9b, 0x5b, 0xbd, 0x27, 0xae, 0x45, 0xbe,
  0x60, 0x28, 0x74, 0xbc, 0x78, 0x38, 0x6a, 0xbe, 0xd0, 0xc4, 0x73, 0xbd,
  0xd4, 0xf6, 0xca, 0xbd, 0x5f, 0x1c, 0x46, 0xbe, 0x2c, 0x76, 0xad, 0xbd,
  0x72, 0x26, 0x81, 0xbe, 0xf3, 0x69, 0x86, 0x3e, 0xc7, 0xc6, 0xa1, 0x3e,
  0x77, 0x2b, 0x8d, 0xbe, 0xc0, 0xdd, 0xd1, 0x3d, 0xe7, 0xef, 0x92, 0xbe,
  0x66, 0x3d, 0x77, 0x3e, 0x60, 0x07, 0x3a, 0xbd, 0xfc, 0x69, 0x49, 0xbe,
  0xc8, 0xfe, 0xb8, 0x3d, 0x40, 0xcd, 0x23, 0xbc, 0x80, 0x15, 0x97, 0x3d,
  0x9a, 0xa0, 0x8f, 0xbe, 0x70, 0x97, 0xd7, 0xbc, 0x21, 0x1d, 0xab, 0x3e,
  0x71, 0x5b, 0xa9, 0x3e, 0x1b, 0xf7, 0x1d, 0xbe, 0x22, 0x74, 0xf1, 0xbd,
  0x60, 0xd7, 0xb9, 0xbd, 0x50, 0xd3, 0x23, 0xbd, 0x94, 0x22, 0x87, 0x3d,
  0x16, 0xac, 0x15, 0x3f, 0xce, 0x21, 0x0f, 0x3e, 0x1f, 0xa1, 0x5c, 0xbe,
  0x49, 0xa4, 0x9b, 0xbe, 0xda, 0x49, 0x3b, 0x3e, 0x39, 0x31, 0x98, 0xbe,
  0x18, 0x4b, 0x94, 0x3e, 0xba, 0x17, 0xdc, 0xbe, 0xbc, 0x7b, 0xae, 0x3e,
  0x61, 0x8c, 0xb6, 0x3e, 0x9f, 0xa4, 0xb4, 0xbe, 0xe1, 0xd0, 0x3e, 0x3d,
  0xd2, 0x9f, 0x75, 0x3e, 0xe3, 0xf4, 0xa5, 0xbe, 0xd9, 0x3c, 0x9b, 0x3e,
  0x08, 0x7d, 0x47, 0x3e, 0x8d, 0xbc, 0x8e, 0xbe, 0x78, 0x49, 0x79, 0xbe,
  0x0b, 0x1d, 0x89, 0xbe, 0x25, 0x2e, 0x9c, 0x3e, 0x47, 0xf5, 0x6b, 0x3d,
  0x24, 0x6b, 0x53, 0xbe, 0x27, 0x75, 0xfe, 0xbd, 0x88, 0x88, 0x60, 0x3d,
  0x50, 0xac, 0x90, 0xbc, 0xcf, 0xae, 0x9a, 0xbe, 0x30, 0x1f, 0x3f, 0xbd,
  0xd3, 0x2a, 0x13, 0xbe, 0xac, 0x4e, 0x62, 0x3e, 0x92, 0xcb, 0x25, 0x3e,
  0xba, 0x3c, 0x54, 0x3d, 0x66, 0x74, 0x13, 0xbe, 0x48, 0x18, 0x86, 0xbe,
  0x82, 0xf3, 0x47, 0xbe, 0x76, 0x78, 0xc3, 0x3d, 0xcb, 0x30, 0x3a, 0x3e,
  0x78, 0xb6, 0x58, 0x3e, 0x80, 0xf9, 0x24, 0xbe, 0xe9, 0x46, 0xac, 0xbe,
  0x8f, 0xf1, 0x87, 0x3e, 0x87, 0xa6, 0x94, 0xbe, 0x6e, 0x26, 0xb0, 0xbe,
  0xae, 0x21, 0x1f, 0xbe, 0x19, 0xec, 0x06, 0x3e, 0xbe, 0x1f, 0x6f, 0x3e,
  0x81, 0xc4, 0x7e, 0xbe, 0x93, 0x0f, 0x9f, 0x3e, 0xd5, 0xaf, 0x03, 0xbe,
  0xea, 0xb6, 0xa8, 0x3e, 0xd3, 0xc4, 0xae, 0x3e, 0x99, 0xca, 0xb3, 0xbd,
  0x95, 0x9a, 0xe5, 0xbd, 0xd9, 0x98, 0x62, 0xbe, 0x1f, 0xfb, 0x2b, 0xbe,
  0xb2, 0x53, 0x19, 0xbe, 0x62, 0xa0, 0x20, 0x3e, 0xe8, 0x57, 0x7a, 0x3d,
  0xa6, 0xac, 0x5e, 0xbe, 0x00, 0x49, 0xf4, 0xba, 0x0a, 0x20, 0x7a, 0x3e,
  0xe3, 0xe8, 0xed, 0x3d, 0xea, 0x63, 0x19, 0xbe, 0x93, 0x6a, 0x98, 0x3e,
  0x95, 0x0b, 0x47, 0x3d, 0xf7, 0x4c, 0xee, 0x3e, 0x33, 0xfc, 0xe7, 0xbc,
  0x0f, 0x04, 0x22, 0x3d, 0x32, 0xe2, 0x29, 0x3d, 0x34, 0x01, 0xb4, 0xbe,
  0xde, 0x8a, 0xe1, 0x3d, 0x07, 0xc8, 0x62, 0x3e, 0xa0, 0x10, 0x58, 0x3e,
  0xf1, 0xa9, 0xf9, 0xbd, 0x4f, 0x9a, 0xb6, 0x3e, 0x86, 0x54, 0xfb, 0xbd,
  0x7a, 0xa3, 0x1c, 0xbe, 0x00, 0x2e, 0x92, 0xbe, 0x0a, 0xa2, 0x60, 0x3d,
  0x00, 0xfc, 0x32, 0x3d, 0x2a, 0xa9, 0xa3, 0x3d, 0xd2, 0xa3, 0x52, 0xbe,
  0xde, 0xb4, 0x51, 0x3e, 0x7a, 0x15, 0x02, 0x3f, 0xe3, 0x4c, 0xb9, 0x3e,
  0x63, 0x16, 0x53, 0x3d, 0xa0, 0x26, 0xa4, 0x3d, 0x3b, 0x39, 0x1e, 0xbd,
  0x94, 0x73, 0xa6, 0xbd, 0xf6, 0x18, 0x08, 0x3e, 0x99, 0xf7, 0xa5, 0x3e,
  0x8a, 0x0c, 0x76, 0x3e, 0xf4, 0x05, 0xa9, 0x3c, 0x40, 0xbc, 0x30, 0x3e,
  0x15, 0x1d, 0x84, 0xbe, 0xa5, 0x3b, 0xe1, 0x3d, 0xb9, 0x5e, 0x49, 0x3d,
  0x8a, 0xfe, 0xff, 0xff, 0x04, 0x00, 0x00, 0x00, 0x40, 0x00, 0x00, 0x00,
  0xd6, 0x8d, 0x07, 0x3f, 0x74, 0x9b, 0x86, 0x3e, 0x35, 0xa3, 0x9c, 0xbe,
  0x64, 0xa4, 0xaf, 0xbe, 0x4d, 0xff, 0x14, 0xbf, 0x33, 0x9a, 0xb2, 0x3e,
  0x22, 0x7a, 0xc2, 0xbe, 0x8f, 0x3d, 0x5a, 0x3e, 0xc1, 0x33, 0xd7, 0xbe,
  0x74, 0x00, 0xc3, 0x3e, 0x46, 0x55, 0x56, 0xbd, 0x29, 0xbd, 0x15, 0x3f,
  0xba, 0x93, 0x8d, 0x3e, 0xe4, 0x1c, 0x52, 0x3f, 0xe8, 0x3b, 0x74, 0x3e,
  0x0a, 0xdd, 0xdb, 0xbd, 0xd6, 0xfe, 0xff, 0xff, 0x04, 0x00, 0x00, 0x00,
  0x04, 0x00, 0x00, 0x00, 0x58, 0x0d, 0x12, 0xbe, 0xe6, 0xfe, 0xff, 0xff,
  0x04, 0x00, 0x00, 0x00, 0x80, 0x00, 0x00, 0x00, 0x76, 0x13, 0x53, 0xbe,
  0x44, 0x6c, 0xf4, 0x3d, 0x98, 0x6e, 0x81, 0xbd, 0x80, 0xb8, 0x44, 0xbe,
  0x8e, 0x69, 0x94, 0xbe, 0x51, 0xdc, 0xfa, 0xbc, 0x05, 0xe1, 0x33, 0xbe,
  0x00, 0x00, 0x00, 0x00, 0xaa, 0x32, 0x43, 0x3e, 0x9a, 0x40, 0x77, 0xbd,
  0x7e, 0x1c, 0x69, 0x3e, 0x00, 0x00, 0x00, 0x00, 0x5d, 0x53, 0x70, 0xbd,
  0x9f, 0x61, 0x81, 0xbe, 0x3f, 0xcd, 0x49, 0x3e, 0x8d, 0x47, 0x42, 0x3e,
  0x5b, 0x05, 0x07, 0xbd, 0x0d, 0x23, 0xfa, 0xbc, 0xe2, 0xbf, 0x93, 0xbe,
  0x69, 0x77, 0xe3, 0xbe, 0xe2, 0x94, 0x12, 0xbb, 0x80, 0x56, 0xfb, 0xbd,
  0x7c, 0x32, 0x0a, 0xbd, 0xd3, 0xcf, 0xdf, 0x3d, 0x72, 0x2d, 0x33, 0x3e,
  0x63, 0x3e, 0xd3, 0xbe, 0x73, 0xd7, 0xbd, 0xbc, 0x21, 0x1c, 0x58, 0xbd,
  0xd1, 0x56, 0xe8, 0xbb, 0xde, 0xc6, 0x80, 0xbe, 0xbf, 0x80, 0x47, 0xbe,
  0xc3, 0xb9, 0x4b, 0x3e, 0x72, 0xff, 0xff, 0xff, 0x04, 0x00, 0x00, 0x00,
  0x80, 0x00, 0x00, 0x00, 0x6f, 0xee, 0xd3, 0x3e, 0xdd, 0xf8, 0x51, 0xbd,
  0x5b, 0xcb, 0x28, 0x3d, 0xb4, 0xf4, 0x18, 0xbe, 0x36, 0xcf, 0x4d, 0x3e,
  0x2b, 0x8f, 0x12, 0xbd, 0xbd, 0x7c, 0x09, 0xbc, 0xe8, 0xa3, 0xa9, 0x3d,
  0xba, 0x3b, 0x9a, 0xbd, 0x80, 0x51, 0x8f, 0x3e, 0xfb, 0xe0, 0xb9, 0xbe,
  0xef, 0x85, 0xbc, 0xb8, 0x00, 0x00, 0x00, 0x00, 0xba, 0x56, 0x0a, 0xbe,
  0x00, 0x00, 0x00, 0x00, 0x68, 0xd6, 0x55, 0x3e, 0xf0, 0x6b, 0x8a, 0xbd,
  0x00, 0x00, 0x00, 0x00, 0x56, 0xab, 0xa9, 0x3d, 0x2e, 0x37, 0x2c, 0x3d,
  0xb3, 0x1d, 0x84, 0xbd, 0x95, 0xd1, 0x10, 0xbe, 0xc1, 0x84, 0xeb, 0xbc,
  0x00, 0x00, 0x00, 0x00, 0x00, 0x00, 0x00, 0x00, 0xe3, 0x25, 0x03, 0xbc,
  0x00, 0x00, 0x00, 0x00, 0x8e, 0x29, 0x38, 0xbd, 0xb2, 0x0e, 0x50, 0xbd,
  0x00, 0x00, 0x00, 0x00, 0xa9, 0x3a, 0x86, 0x3c, 0x78, 0xb3, 0x97, 0x3d,
  0x00, 0x00, 0x06, 0x00, 0x08, 0x00, 0x04, 0x00, 0x06, 0x00, 0x00, 0x00,
  0x04, 0x00, 0x00, 0x00, 0x40, 0x00, 0x00, 0x00, 0x22, 0x48, 0xdf, 0x3d,
  0x00, 0x00, 0x00, 0x00, 0xd6, 0xa3, 0xb5, 0xbd, 0x00, 0x00, 0x00, 0x00,
  0x44, 0xad, 0x18, 0x3e, 0xb2, 0x95, 0xdb, 0xbd, 0x81, 0x49, 0x09, 0x3e,
  0x19, 0x8a, 0xac, 0xbd, 0xe2, 0x8c, 0xe7, 0x3d, 0x93, 0x5c, 0x3a, 0xbe,
  0xa2, 0x63, 0x93, 0xbd, 0x4d, 0x30, 0xe9, 0x3d, 0x00, 0x00, 0x00, 0x00,
  0x34, 0x5d, 0x2b, 0x3e, 0x6b, 0x25, 0x27, 0xbd, 0x30, 0xe5, 0x14, 0x3e,
  0xc4, 0xf7, 0xff, 0xff, 0xc8, 0xf7, 0xff, 0xff, 0x0f, 0x00, 0x00, 0x00,
  0x4d, 0x4c, 0x49, 0x52, 0x20, 0x43, 0x6f, 0x6e, 0x76, 0x65, 0x72, 0x74,
  0x65, 0x64, 0x2e, 0x00, 0x01, 0x00, 0x00, 0x00, 0x14, 0x00, 0x00, 0x00,
  0x00, 0x00, 0x0e, 0x00, 0x18, 0x00, 0x14, 0x00, 0x10, 0x00, 0x0c, 0x00,
  0x08, 0x00, 0x04, 0x00, 0x0e, 0x00, 0x00, 0x00, 0x14, 0x00, 0x00, 0x00,
  0x1c, 0x00, 0x00, 0x00, 0x58, 0x01, 0x00, 0x00, 0x5c, 0x01, 0x00, 0x00,
  0x60, 0x01, 0x00, 0x00, 0x04, 0x00, 0x00, 0x00, 0x6d, 0x61, 0x69, 0x6e,
  0x00, 0x00, 0x00, 0x00, 0x05, 0x00, 0x00, 0x00, 0x00, 0x01, 0x00, 0x00,
  0xb8, 0x00, 0x00, 0x00, 0x70, 0x00, 0x00, 0x00, 0x38, 0x00, 0x00, 0x00,
  0x04, 0x00, 0x00, 0x00, 0x66, 0xff, 0xff, 0xff, 0x10, 0x00, 0x00, 0x00,
  0x00, 0x00, 0x00, 0x08, 0x0c, 0x00, 0x00, 0x00, 0x10, 0x00, 0x00, 0x00,
  0x48, 0xf8, 0xff, 0xff, 0x01, 0x00, 0x00, 0x00, 0x0f, 0x00, 0x00, 0x00,
  0x03, 0x00, 0x00, 0x00, 0x0e, 0x00, 0x00, 0x00, 0x05, 0x00, 0x00, 0x00,
  0x04, 0x00, 0x00, 0x00, 0x96, 0xff, 0xff, 0xff, 0x10, 0x00, 0x00, 0x00,
  0x00, 0x00, 0x00, 0x08, 0x10, 0x00, 0x00, 0x00, 0x14, 0x00, 0x00, 0x00,
  0x42, 0xff, 0xff, 0xff, 0x00, 0x00, 0x00, 0x01, 0x01, 0x00, 0x00, 0x00,
  0x0e, 0x00, 0x00, 0x00, 0x03, 0x00, 0x00, 0x00, 0x0d, 0x00, 0x00, 0x00,
  0x06, 0x00, 0x00, 0x00, 0x01, 0x00, 0x00, 0x00, 0xca, 0xff, 0xff, 0xff,
  0x10, 0x00, 0x00, 0x00, 0x00, 0x00, 0x00, 0x08, 0x10, 0x00, 0x00, 0x00,
  0x14, 0x00, 0x00, 0x00, 0x76, 0xff, 0xff, 0xff, 0x00, 0x00, 0x00, 0x01,
  0x01, 0x00, 0x00, 0x00, 0x0d, 0x00, 0x00, 0x00, 0x03, 0x00, 0x00, 0x00,
  0x0c, 0x00, 0x00, 0x00, 0x07, 0x00, 0x00, 0x00, 0x02, 0x00, 0x00, 0x00,
  0x00, 0x00, 0x0e, 0x00, 0x14, 0x00, 0x00, 0x00, 0x10, 0x00, 0x0c, 0x00,
  0x0b, 0x00, 0x04, 0x00, 0x0e, 0x00, 0x00, 0x00, 0x10, 0x00, 0x00, 0x00,
  0x00, 0x00, 0x00, 0x08, 0x10, 0x00, 0x00, 0x00, 0x14, 0x00, 0x00, 0x00,
  0xba, 0xff, 0xff, 0xff, 0x00, 0x00, 0x00, 0x01, 0x01, 0x00, 0x00, 0x00,
  0x0c, 0x00, 0x00, 0x00, 0x03, 0x00, 0x00, 0x00, 0x0b, 0x00, 0x00, 0x00,
  0x08, 0x00, 0x00, 0x00, 0x03, 0x00, 0x00, 0x00, 0x00, 0x00, 0x0e, 0x00,
  0x16, 0x00, 0x00, 0x00, 0x10, 0x00, 0x0c, 0x00, 0x0b, 0x00, 0x04, 0x00,
  0x0e, 0x00, 0x00, 0x00, 0x18, 0x00, 0x00, 0x00, 0x00, 0x00, 0x00, 0x08,
  0x18, 0x00, 0x00, 0x00, 0x1c, 0x00, 0x00, 0x00, 0x00, 0x00, 0x06, 0x00,
  0x08, 0x00, 0x07, 0x00, 0x06, 0x00, 0x00, 0x00, 0x00, 0x00, 0x00, 0x01,
  0x01, 0x00, 0x00, 0x00, 0x0b, 0x00, 0x00, 0x00, 0x03, 0x00, 0x00, 0x00,
  0x00, 0x00, 0x00, 0x00, 0x09, 0x00, 0x00, 0x00, 0x0a, 0x00, 0x00, 0x00,
  0x01, 0x00, 0x00, 0x00, 0x0f, 0x00, 0x00, 0x00, 0x01, 0x00, 0x00, 0x00,
  0x00, 0x00, 0x00, 0x00, 0x10, 0x00, 0x00, 0x00, 0x68, 0x06, 0x00, 0x00,
  0xe8, 0x05, 0x00, 0x00, 0x68, 0x05, 0x00, 0x00, 0x00, 0x05, 0x00, 0x00,
  0xb8, 0x04, 0x00, 0x00, 0x68, 0x04, 0x00, 0x00, 0x18, 0x04, 0x00, 0x00,
  0xc8, 0x03, 0x00, 0x00, 0x78, 0x03, 0x00, 0x00, 0x2c, 0x03, 0x00, 0x00,
  0xc8, 0x02, 0x00, 0x00, 0x34, 0x02, 0x00, 0x00, 0x98, 0x01, 0x00, 0x00,
  0xfc, 0x00, 0x00, 0x00, 0x60, 0x00, 0x00, 0x00, 0x04, 0x00, 0x00, 0x00,
  0xee, 0xf9, 0xff, 0xff, 0x00, 0x00, 0x00, 0x01, 0x14, 0x00, 0x00, 0x00,
  0x1c, 0x00, 0x00, 0x00, 0x1c, 0x00, 0x00, 0x00, 0x10, 0x00, 0x00, 0x00,
  0x34, 0x00, 0x00, 0x00, 0x02, 0x00, 0x00, 0x00, 0xff, 0xff, 0xff, 0xff,
  0x01, 0x00, 0x00, 0x00, 0xd8, 0xf9, 0xff, 0xff, 0x1b, 0x00, 0x00, 0x00,
  0x53, 0x74, 0x61, 0x74, 0x65, 0x66, 0x75, 0x6c, 0x50, 0x61, 0x72, 0x74,
  0x69, 0x74, 0x69, 0x6f, 0x6e, 0x65, 0x64, 0x43, 0x61, 0x6c, 0x6c, 0x5f,
  0x31, 0x3a, 0x30, 0x00, 0x02, 0x00, 0x00, 0x00, 0x01, 0x00, 0x00, 0x00,
  0x01, 0x00, 0x00, 0x00, 0x46, 0xfa, 0xff, 0xff, 0x00, 0x00, 0x00, 0x01,
  0x14, 0x00, 0x00, 0x00, 0x1c, 0x00, 0x00, 0x00, 0x1c, 0x00, 0x00, 0x00,
  0x0f, 0x00, 0x00, 0x00, 0x74, 0x00, 0x00, 0x00, 0x02, 0x00, 0x00, 0x00,
  0xff, 0xff, 0xff, 0xff, 0x10, 0x00, 0x00, 0x00, 0x30, 0xfa, 0xff, 0xff,
  0x58, 0x00, 0x00, 0x00, 0x73, 0x65, 0x71, 0x75, 0x65, 0x6e, 0x74, 0x69,
  0x61, 0x6c, 0x5f, 0x31, 0x2f, 0x64, 0x65, 0x6e, 0x73, 0x65, 0x5f, 0x33,
  0x5f, 0x31, 0x2f, 0x4d, 0x61, 0x74, 0x4d, 0x75, 0x6c, 0x3b, 0x73, 0x65,
  0x71, 0x75, 0x65, 0x6e, 0x74, 0x69, 0x61, 0x6c, 0x5f, 0x31, 0x2f, 0x64,
  0x65, 0x6e, 0x73, 0x65, 0x5f, 0x33, 0x5f, 0x31, 0x2f, 0x52, 0x65, 0x6c,
  0x75, 0x3b, 0x73, 0x65, 0x71, 0x75, 0x65, 0x6e, 0x74, 0x69, 0x61, 0x6c,
  0x5f, 0x31, 0x2f, 0x64, 0x65, 0x6e, 0x73, 0x65, 0x5f, 0x33, 0x5f, 0x31,
  0x2f, 0x42, 0x69, 0x61, 0x73, 0x41, 0x64, 0x64, 0x00, 0x00, 0x00, 0x00,
  0x02, 0x00, 0x00, 0x00, 0x01, 0x00, 0x00, 0x00, 0x10, 0x00, 0x00, 0x00,
  0xde, 0xfa, 0xff, 0xff, 0x00, 0x00, 0x00, 0x01, 0x14, 0x00, 0x00, 0x00,
  0x1c, 0x00, 0x00, 0x00, 0x1c, 0x00, 0x00, 0x00, 0x0e, 0x00, 0x00, 0x00,
  0x74, 0x00, 0x00, 0x00, 0x02, 0x00, 0x00, 0x00, 0xff, 0xff, 0xff, 0xff,
  0x20, 0x00, 0x00, 0x00, 0xc8, 0xfa, 0xff, 0xff, 0x58, 0x00, 0x00, 0x00,
  0x73, 0x65, 0x71, 0x75, 0x65, 0x6e, 0x74, 0x69, 0x61, 0x6c, 0x5f, 0x31,
  0x2f, 0x64, 0x65, 0x6e, 0x73, 0x65, 0x5f, 0x32, 0x5f, 0x31, 0x2f, 0x4d,
  0x61, 0x74, 0x4d, 0x75, 0x6c, 0x3b, 0x73, 0x65, 0x71, 0x75, 0x65, 0x6e,
  0x74, 0x69, 0x61, 0x6c, 0x5f, 0x31, 0x2f, 0x64, 0x65, 0x6e, 0x73, 0x65,
  0x5f, 0x32, 0x5f, 0x31, 0x2f, 0x52, 0x65, 0x6c, 0x75, 0x3b, 0x73, 0x65,
  0x71, 0x75, 0x65, 0x6e, 0x74, 0x69, 0x61, 0x6c, 0x5f, 0x31, 0x2f, 0x64,
  0x65, 0x6e, 0x73, 0x65, 0x5f, 0x32, 0x5f, 0x31, 0x2f, 0x42, 0x69, 0x61,
  0x73, 0x41, 0x64, 0x64, 0x00, 0x00, 0x00, 0x00, 0x02, 0x00, 0x00, 0x00,
  0x01, 0x00, 0x00, 0x00, 0x20, 0x00, 0x00, 0x00, 0x76, 0xfb, 0xff, 0xff,
  0x00, 0x00, 0x00, 0x01, 0x14, 0x00, 0x00, 0x00, 0x1c, 0x00, 0x00, 0x00,
  0x1c, 0x00, 0x00, 0x00, 0x0d, 0x00, 0x00, 0x00, 0x74, 0x00, 0x00, 0x00,
  0x02, 0x00, 0x00, 0x00, 0xff, 0xff, 0xff, 0xff, 0x20, 0x00, 0x00, 0x00,
  0x60, 0xfb, 0xff, 0xff, 0x58, 0x00, 0x00, 0x00, 0x73, 0x65, 0x71, 0x75,
  0x65, 0x6e, 0x74, 0x69, 0x61, 0x6c, 0x5f, 0x31, 0x2f, 0x64, 0x65, 0x6e,
  0x73, 0x65, 0x5f, 0x31, 0x5f, 0x32, 0x2f, 0x4d, 0x61, 0x74, 0x4d, 0x75,
  0x6c, 0x3b, 0x73, 0x65, 0x71, 0x75, 0x65, 0x6e, 0x74, 0x69, 0x61, 0x6c,
  0x5f, 0x31, 0x2f, 0x64, 0x65, 0x6e, 0x73, 0x65, 0x5f, 0x31, 0x5f, 0x32,
  0x2f, 0x52, 0x65, 0x6c, 0x75, 0x3b, 0x73, 0x65, 0x71, 0x75, 0x65, 0x6e,
  0x74, 0x69, 0x61, 0x6c, 0x5f, 0x31, 0x2f, 0x64, 0x65, 0x6e, 0x73, 0x65,
  0x5f, 0x31, 0x5f, 0x32, 0x2f, 0x42, 0x69, 0x61, 0x73, 0x41, 0x64, 0x64,
  0x00, 0x00, 0x00, 0x00, 0x02, 0x00, 0x00, 0x00, 0x01, 0x00, 0x00, 0x00,
  0x20, 0x00, 0x00, 0x00, 0x0e, 0xfc, 0xff, 0xff, 0x00, 0x00, 0x00, 0x01,
  0x14, 0x00, 0x00, 0x00, 0x1c, 0x00, 0x00, 0x00, 0x1c, 0x00, 0x00, 0x00,
  0x0c, 0x00, 0x00, 0x00, 0x6c, 0x00, 0x00, 0x00, 0x02, 0x00, 0x00, 0x00,
  0xff, 0xff, 0xff, 0xff, 0x30, 0x00, 0x00, 0x00, 0xf8, 0xfb, 0xff, 0xff,
  0x52, 0x00, 0x00, 0x00, 0x73, 0x65, 0x71, 0x75, 0x65, 0x6e, 0x74, 0x69,
  0x61, 0x6c, 0x5f, 0x31, 0x2f, 0x64, 0x65, 0x6e, 0x73, 0x65, 0x5f, 0x31,
  0x2f, 0x4d, 0x61, 0x74, 0x4d, 0x75, 0x6c, 0x3b, 0x73, 0x65, 0x71, 0x75,
  0x65, 0x6e, 0x74, 0x69, 0x61, 0x6c, 0x5f, 0x31, 0x2f, 0x64, 0x65, 0x6e,
  0x73, 0x65, 0x5f, 0x31, 0x2f, 0x52, 0x65, 0x6c, 0x75, 0x3b, 0x73, 0x65,
  0x71, 0x75, 0x65, 0x6e, 0x74, 0x69, 0x61, 0x6c, 0x5f, 0x31, 0x2f, 0x64,
  0x65, 0x6e, 0x73, 0x65, 0x5f, 0x31, 0x2f, 0x42, 0x69, 0x61, 0x73, 0x41,
  0x64, 0x64, 0x00, 0x00, 0x02, 0x00, 0x00, 0x00, 0x01, 0x00, 0x00, 0x00,
  0x30, 0x00, 0x00, 0x00, 0x1a, 0xfd, 0xff, 0xff, 0x00, 0x00, 0x00, 0x01,
  0x10, 0x00, 0x00, 0x00, 0x10, 0x00, 0x00, 0x00, 0x0b, 0x00, 0x00, 0x00,
  0x44, 0x00, 0x00, 0x00, 0x78, 0xfc, 0xff, 0xff, 0x36, 0x00, 0x00, 0x00,
  0x73, 0x65, 0x71, 0x75, 0x65, 0x6e, 0x74, 0x69, 0x61, 0x6c, 0x5f, 0x31,
  0x2f, 0x64, 0x65, 0x6e, 0x73, 0x65, 0x5f, 0x31, 0x2f, 0x52, 0x65, 0x6c,
  0x75, 0x3b, 0x73, 0x65, 0x71, 0x75, 0x65, 0x6e, 0x74, 0x69, 0x61, 0x6c,
  0x5f, 0x31, 0x2f, 0x64, 0x65, 0x6e, 0x73, 0x65, 0x5f, 0x31, 0x2f, 0x42,
  0x69, 0x61, 0x73, 0x41, 0x64, 0x64, 0x00, 0x00, 0x01, 0x00, 0x00, 0x00,
  0x30, 0x00, 0x00, 0x00, 0x7a, 0xfd, 0xff, 0xff, 0x00, 0x00, 0x00, 0x01,
  0x10, 0x00, 0x00, 0x00, 0x10, 0x00, 0x00, 0x00, 0x0a, 0x00, 0x00, 0x00,
  0x28, 0x00, 0x00, 0x00, 0xd8, 0xfc, 0xff, 0xff, 0x1b, 0x00, 0x00, 0x00,
  0x73, 0x65, 0x71, 0x75, 0x65, 0x6e, 0x74, 0x69, 0x61, 0x6c, 0x5f, 0x31,
  0x2f, 0x64, 0x65, 0x6e, 0x73, 0x65, 0x5f, 0x31, 0x2f, 0x4d, 0x61, 0x74,
  0x4d, 0x75, 0x6c, 0x00, 0x02, 0x00, 0x00, 0x00, 0x30, 0x00, 0x00, 0x00,
  0x01, 0x00, 0x00, 0x00, 0xc2, 0xfd, 0xff, 0xff, 0x00, 0x00, 0x00, 0x01,
  0x10, 0x00, 0x00, 0x00, 0x10, 0x00, 0x00, 0x00, 0x09, 0x00, 0x00, 0x00,
  0x2c, 0x00, 0x00, 0x00, 0x20, 0xfd, 0xff, 0xff, 0x1d, 0x00, 0x00, 0x00,
  0x73, 0x65, 0x71, 0x75, 0x65, 0x6e, 0x74, 0x69, 0x61, 0x6c, 0x5f, 0x31,
  0x2f, 0x64, 0x65, 0x6e, 0x73, 0x65, 0x5f, 0x31, 0x5f, 0x32, 0x2f, 0x4d,
  0x61, 0x74, 0x4d, 0x75, 0x6c, 0x00, 0x00, 0x00, 0x02, 0x00, 0x00, 0x00,
  0x20, 0x00, 0x00, 0x00, 0x30, 0x00, 0x00, 0x00, 0x0e, 0xfe, 0xff, 0xff,
  0x00, 0x00, 0x00, 0x01, 0x10, 0x00, 0x00, 0x00, 0x10, 0x00, 0x00, 0x00,
  0x08, 0x00, 0x00, 0x00, 0x2c, 0x00, 0x00, 0x00, 0x6c, 0xfd, 0xff, 0xff,
  0x1d, 0x00, 0x00, 0x00, 0x73, 0x65, 0x71, 0x75, 0x65, 0x6e, 0x74, 0x69,
  0x61, 0x6c, 0x5f, 0x31, 0x2f, 0x64, 0x65, 0x6e, 0x73, 0x65, 0x5f, 0x32,
  0x5f, 0x31, 0x2f, 0x4d, 0x61, 0x74, 0x4d, 0x75, 0x6c, 0x00, 0x00, 0x00,
  0x02, 0x00, 0x00, 0x00, 0x20, 0x00, 0x00, 0x00, 0x20, 0x00, 0x00, 0x00,
  0x5a, 0xfe, 0xff, 0xff, 0x00, 0x00, 0x00, 0x01, 0x10, 0x00, 0x00, 0x00,
  0x10, 0x00, 0x00, 0x00, 0x07, 0x00, 0x00, 0x00, 0x2c, 0x00, 0x00, 0x00,
  0xb8, 0xfd, 0xff, 0xff, 0x1d, 0x00, 0x00, 0x00, 0x73, 0x65, 0x71, 0x75,
  0x65, 0x6e, 0x74, 0x69, 0x61, 0x6c, 0x5f, 0x31, 0x2f, 0x64, 0x65, 0x6e,
  0x73, 0x65, 0x5f, 0x33, 0x5f, 0x31, 0x2f, 0x4d, 0x61, 0x74, 0x4d, 0x75,
  0x6c, 0x00, 0x00, 0x00, 0x02, 0x00, 0x00, 0x00, 0x10, 0x00, 0x00, 0x00,
  0x20, 0x00, 0x00, 0x00, 0xa6, 0xfe, 0xff, 0xff, 0x00, 0x00, 0x00, 0x01,
  0x10, 0x00, 0x00, 0x00, 0x10, 0x00, 0x00, 0x00, 0x06, 0x00, 0x00, 0x00,
  0x2c, 0x00, 0x00, 0x00, 0x04, 0xfe, 0xff, 0xff, 0x1d, 0x00, 0x00, 0x00,
  0x73, 0x65, 0x71, 0x75, 0x65, 0x6e, 0x74, 0x69, 0x61, 0x6c, 0x5f, 0x31,
  0x2f, 0x64, 0x65, 0x6e, 0x73, 0x65, 0x5f, 0x34, 0x5f, 0x31, 0x2f, 0x4d,
  0x61, 0x74, 0x4d, 0x75, 0x6c, 0x00, 0x00, 0x00, 0x02, 0x00, 0x00, 0x00,
  0x01, 0x00, 0x00, 0x00, 0x10, 0x00, 0x00, 0x00, 0xf2, 0xfe, 0xff, 0xff,
  0x00, 0x00, 0x00, 0x01, 0x10, 0x00, 0x00, 0x00, 0x10, 0x00, 0x00, 0x00,
  0x05, 0x00, 0x00, 0x00, 0x28, 0x00, 0x00, 0x00, 0x50, 0xfe, 0xff, 0xff,
  0x1a, 0x00, 0x00, 0x00, 0x73, 0x65, 0x71, 0x75, 0x65, 0x6e, 0x74, 0x69,
  0x61, 0x6c, 0x5f, 0x31, 0x2f, 0x64, 0x65, 0x6e, 0x73, 0x65, 0x5f, 0x34,
  0x5f, 0x31, 0x2f, 0x41, 0x64, 0x64, 0x00, 0x00, 0x01, 0x00, 0x00, 0x00,
  0x01, 0x00, 0x00, 0x00, 0x36, 0xff, 0xff, 0xff, 0x00, 0x00, 0x00, 0x01,
  0x10, 0x00, 0x00, 0x00, 0x10, 0x00, 0x00, 0x00, 0x04, 0x00, 0x00, 0x00,
  0x48, 0x00, 0x00, 0x00, 0x94, 0xfe, 0xff, 0xff, 0x3a, 0x00, 0x00, 0x00,
  0x73, 0x65, 0x71, 0x75, 0x65, 0x6e, 0x74, 0x69, 0x61, 0x6c, 0x5f, 0x31,
  0x2f, 0x64, 0x65, 0x6e, 0x73, 0x65, 0x5f, 0x31, 0x5f, 0x32, 0x2f, 0x52,
  0x65, 0x6c, 0x75, 0x3b, 0x73, 0x65, 0x71, 0x75, 0x65, 0x6e, 0x74, 0x69,
  0x61, 0x6c, 0x5f, 0x31, 0x2f, 0x64, 0x65, 0x6e, 0x73, 0x65, 0x5f, 0x31,
  0x5f, 0x32, 0x2f, 0x42, 0x69, 0x61, 0x73, 0x41, 0x64, 0x64, 0x00, 0x00,
  0x01, 0x00, 0x00, 0x00, 0x20, 0x00, 0x00, 0x00, 0x9a, 0xff, 0xff, 0xff,
  0x00, 0x00, 0x00, 0x01, 0x10, 0x00, 0x00, 0x00, 0x10, 0x00, 0x00, 0x00,
  0x03, 0x00, 0x00, 0x00, 0x48, 0x00, 0x00, 0x00, 0xf8, 0xfe, 0xff, 0xff,
  0x3a, 0x00, 0x00, 0x00, 0x73, 0x65, 0x71, 0x75, 0x65, 0x6e, 0x74, 0x69,
  0x61, 0x6c, 0x5f, 0x31, 0x2f, 0x64, 0x65, 0x6e, 0x73, 0x65, 0x5f, 0x32,
  0x5f, 0x31, 0x2f, 0x52, 0x65, 0x6c, 0x75, 0x3b, 0x73, 0x65, 0x71, 0x75,
  0x65, 0x6e, 0x74, 0x69, 0x61, 0x6c, 0x5f, 0x31, 0x2f, 0x64, 0x65, 0x6e,
  0x73, 0x65, 0x5f, 0x32, 0x5f, 0x31, 0x2f, 0x42, 0x69, 0x61, 0x73, 0x41,
  0x64, 0x64, 0x00, 0x00, 0x01, 0x00, 0x00, 0x00, 0x20, 0x00, 0x00, 0x00,
  0x00, 0x00, 0x16, 0x00, 0x18, 0x00, 0x14, 0x00, 0x00, 0x00, 0x10, 0x00,
  0x0c, 0x00, 0x08, 0x00, 0x00, 0x00, 0x00, 0x00, 0x00, 0x00, 0x07, 0x00,
  0x16, 0x00, 0x00, 0x00, 0x00, 0x00, 0x00, 0x01, 0x10, 0x00, 0x00, 0x00,
  0x10, 0x00, 0x00, 0x00, 0x02, 0x00, 0x00, 0x00, 0x48, 0x00, 0x00, 0x00,
  0x74, 0xff, 0xff, 0xff, 0x3a, 0x00, 0x00, 0x00, 0x73, 0x65, 0x71, 0x75,
  0x65, 0x6e, 0x74, 0x69, 0x61, 0x6c, 0x5f, 0x31, 0x2f, 0x64, 0x65, 0x6e,
  0x73, 0x65, 0x5f, 0x33, 0x5f, 0x31, 0x2f, 0x52, 0x65, 0x6c, 0x75, 0x3b,
  0x73, 0x65, 0x71, 0x75, 0x65, 0x6e, 0x74, 0x69, 0x61, 0x6c, 0x5f, 0x31,
  0x2f, 0x64, 0x65, 0x6e, 0x73, 0x65, 0x5f, 0x33, 0x5f, 0x31, 0x2f, 0x42,
  0x69, 0x61, 0x73, 0x41, 0x64, 0x64, 0x00, 0x00, 0x01, 0x00, 0x00, 0x00,
  0x10, 0x00, 0x00, 0x00, 0x00, 0x00, 0x16, 0x00, 0x1c, 0x00, 0x18, 0x00,
  0x00, 0x00, 0x14, 0x00, 0x10, 0x00, 0x0c, 0x00, 0x00, 0x00, 0x00, 0x00,
  0x08, 0x00, 0x07, 0x00, 0x16, 0x00, 0x00, 0x00, 0x00, 0x00, 0x00, 0x01,
  0x14, 0x00, 0x00, 0x00, 0x20, 0x00, 0x00, 0x00, 0x20, 0x00, 0x00, 0x00,
  0x01, 0x00, 0x00, 0x00, 0x3c, 0x00, 0x00, 0x00, 0x02, 0x00, 0x00, 0x00,
  0xff, 0xff, 0xff, 0xff, 0x01, 0x00, 0x00, 0x00, 0x04, 0x00, 0x04, 0x00,
  0x04, 0x00, 0x00, 0x00, 0x1e, 0x00, 0x00, 0x00, 0x73, 0x65, 0x72, 0x76,
  0x69, 0x6e, 0x67, 0x5f, 0x64, 0x65, 0x66, 0x61, 0x75, 0x6c, 0x74, 0x5f,
  0x6b, 0x65, 0x72, 0x61, 0x73, 0x5f, 0x74, 0x65, 0x6e, 0x73, 0x6f, 0x72,
  0x3a, 0x30, 0x00, 0x00, 0x02, 0x00, 0x00, 0x00, 0x01, 0x00, 0x00, 0x00,
  0x01, 0x00, 0x00, 0x00, 0x01, 0x00, 0x00, 0x00, 0x10, 0x00, 0x00, 0x00,
  0x0c, 0x00, 0x0c, 0x00, 0x0b, 0x00, 0x00, 0x00, 0x00, 0x00, 0x04, 0x00,
  0x0c, 0x00, 0x00, 0x00, 0x09, 0x00, 0x00, 0x00, 0x00, 0x00, 0x00, 0x09
 
};

#endif //SINE_MODEL_H