/**
  ******************************************************************************
  * @file    network_data.c
  * @author  AST Embedded Analytics Research Platform
  * @date    2026-05-02T17:50:19+0000
  * @brief   AI Tool Automatic Code Generator for Embedded NN computing
  ******************************************************************************
  * Copyright (c) 2026 STMicroelectronics.
  * All rights reserved.
  *
  * This software is licensed under terms that can be found in the LICENSE file
  * in the root directory of this software component.
  * If no LICENSE file comes with this software, it is provided AS-IS.
  ******************************************************************************
  */

#include "network_data.h"
STAI_ALIGNED(8)
const uint64_t g_network_gemm_0_weights_array[24] = {
  0xbbc454453e32e63aU, 0xbd2446c0bbca42a5U, 0x3e8e98d2bdcf96dcU, 0xbe1d046f3e09a302U,
  0xbe44c102bd1e09abU, 0xbe88848e3c2543a0U, 0xbaf7c17b3e66c283U, 0x3d4317e2be515504U,
  0x3e14dcafbd5fb7b0U, 0xbc35bffa3e368d83U, 0xbe86f3a83dcfbbadU, 0xbc37b297be951ed9U,
  0x3dc046893dd2fe2cU, 0xbdb8c6ccbe900aa4U, 0xbe970c42bdd364aaU, 0xbe3a38c1bcf2b590U,
  0x3dc8e16e3e695491U, 0x3d614a6c3e3b6d3aU, 0xbe8128f9be425f91U, 0xbe2ee5a7bdb74934U,
  0xbd85daec3d8e341bU, 0xbdbaca74be058a9cU, 0x3e367567bd184506U, 0xbce09b203e2b079eU,
};

STAI_ALIGNED(8)
const uint64_t g_network_gemm_0_bias_array[24] = {
  0xbc085520bbabc293U, 0x3e78b427U, 0xbdc7572700000000U, 0x3dd43f6fU,
  0x3e7fe9a7U, 0xbd935396U, 0xbbffad36becb81a8U, 0xbe7f6c1700000000U,
  0xbe1e42c200000000U, 0x3e3532a63e6e64d9U, 0x3dc0b09aU, 0xb7e74e7a00000000U,
  0xbb30997f3e1312bcU, 0x0U, 0x0U, 0x0U,
  0xbe99a390bc09ba7dU, 0xbe9b2bfbbea0dd7eU, 0x0U, 0x0U,
  0xbeb121c5U, 0x0U, 0xbea14fa03e7997bcU, 0xbe928162U,
};

STAI_ALIGNED(8)
const uint64_t g_network_gemm_1_weights_array[768] = {
  0xbe6ce5bb3e5cd45bU, 0xbd92d7ea3e5f333cU, 0x3e756e0a3ddf4ea8U, 0x3e85cb5a3d985d5cU,
  0xbd09164cbe9cdc66U, 0xbe45e5dc3e8029eeU, 0xbd6f1ad63e84c257U, 0x3ce712d5be53ffe6U,
  0xbe6e9cb1be836d1aU, 0x3e4b87dbbe1c96eaU, 0x3c3ac160be83888cU, 0xbe36a9b23daae97cU,
  0xbd70c344bbc9ac57U, 0xbe2fa6ca3e865ff6U, 0xbcca1720bd79afc4U, 0xbe1e516a3e2b0a3eU,
  0xbd7c49ecbe33043dU, 0x3ea422443e2c97fcU, 0x3e189baebd98fc98U, 0x3dfe504cbe503520U,
  0xbce18f183f08dccdU, 0x3e5d8b2abe77c776U, 0xbe2b56d8be562091U, 0x3d243910bdb3b991U,
  0x3e477140bee1362aU, 0xbde615703e89a4c9U, 0xbe8e8942be5e5a95U, 0xbdc28e5ebeac4f13U,
  0xbcdf33c83ea1c083U, 0xbe26e74fbe0a529dU, 0xbe8051e9bae101cdU, 0xbded3ff5be87afadU,
  0xbe88959fbd7eb974U, 0xb8aeb8823e2d854dU, 0x3e411c723dfecd11U, 0x3dd003e53e544e82U,
  0x3c26c1d6bd9fc634U, 0xbe820bf93cde93b0U, 0x3e15ce4ebdacb2b2U, 0xbe137e93be2b30e0U,
  0xbdc55ee8bed091f8U, 0xbe4c0d713e40da6cU, 0xbd2ade383e40528aU, 0xbd40a2d0be40056aU,
  0x3e10d8fe3e3d1212U, 0x3e4bf756be3aac86U, 0xbe8220fe3e094384U, 0x3e263f3e3dd520afU,
  0x3d06a7e93e3f3cd5U, 0xbe864746bc54561fU, 0xbe10c32dbc8e2670U, 0xbcd6c1c8be3b456fU,
  0x3e53fda83e0a98a3U, 0x3c620d203cde559bU, 0x3e421823be5f30caU, 0xbc36785c3c244b60U,
  0x3dbb66de3e5e00e0U, 0x3d7088763d8a9202U, 0xbe5c9fc0bc8a8057U, 0xbe2c1594be45fa88U,
  0x3e1e19383d9a9091U, 0xbe05131d3e870698U, 0x3e5393a23d878fe0U, 0xbcb34470bd95f65aU,
  0xbdb8859abe071c44U, 0x3cb45274bd8ab7bfU, 0xbd6c6bd4be6954e5U, 0x3dd2f5a0be842fdeU,
  0x3e223312be807dc3U, 0xbe00abebbd92944eU, 0xbe232e663d652432U, 0xbe80c527bca13e30U,
  0x3e0236df3e586becU, 0x3e1161343d52767cU, 0x3dffcb043d2701f0U, 0xbe3c1de8bc366c15U,
  0x3df1ac84bdffd124U, 0xbe008f18bb9871a5U, 0xbd7ef67ebd811705U, 0x3e40485bbc603540U,
  0xbe87579f3e3ffdb2U, 0xbc392c63bd2adf80U, 0xbd222394bde85098U, 0xbde75dfa3e843372U,
  0x3e7919abbe2c1517U, 0x3ce8d000be2c81c6U, 0x3e21d2c63e7087f8U, 0xbe5f4cf3be6ca19fU,
  0xbd2e010e3e079f7eU, 0xbe547dfc3d2360beU, 0x3dbc3e8c3d838bd4U, 0x3e2fe6883e858d92U,
  0xbcc530b83e21f3c7U, 0xbe0b0521bddba0daU, 0xbe69d1d9be87acadU, 0x3c904e203d6814fbU,
  0xbe80271fbe46ff18U, 0x3e538d56bd016cffU, 0x3e0726b7be729355U, 0xbd0226ecbda14c78U,
  0xbdf1f58abe3b2b19U, 0xbe596c713e8dc695U, 0x3cb215093e9118ecU, 0x3e658edc3dce2e74U,
  0x3df484343cd60090U, 0x3d57043fbe053404U, 0xbe881b6cbd591c46U, 0xbe634abbbde81926U,
  0x3e5a066ebe1f0e5bU, 0x3dfc708cbd2edb84U, 0x3e40dbd0bdd0ff76U, 0x3e098f96bc5f4ba0U,
  0x3ed57da73dcb68e0U, 0x3e6f786f3e4ad35cU, 0x3d803dd0be5b51cbU, 0xbe676c9a3e02f660U,
  0x3e30a6d23e95516cU, 0x3e86eb00be0b535aU, 0x3e4331b5bd288da5U, 0x3dfedcc03e31a770U,
  0x3cd4059dbbcacb6eU, 0xbe4b56f0be290f7eU, 0xbe04498e3e38bdf6U, 0xbe862a6f3e08374aU,
  0x3d85ae98bd38b325U, 0x3ceba070bdbd24d0U, 0x3e883e533e76c4caU, 0xbddf4bc83daca8ccU,
  0xbe4d54ad3e4e9148U, 0xbe952726be4b45c7U, 0x3dc558303cd0ccb5U, 0xbe2fa2c2bd979162U,
  0x3e20f4dbbe7b2806U, 0x3d70adb83e82aca8U, 0x3e6ca384be875a3dU, 0xbe488bc8bdedae4cU,
  0x3e0e2bde3cba532eU, 0xbe60e0fb3e461491U, 0x3d30d1183df3ce5cU, 0x3d55fd80bdb921b8U,
  0xbe16a7333e62acc7U, 0xbdd9ab463d606680U, 0xba151558bda16164U, 0x3e4839debcb5ba77U,
  0xbe6133d8be708e85U, 0xbdcaa92cbe3055c4U, 0x3e5d51383e449540U, 0x3e107bf2bc97121cU,
  0xbe7efa4f3e40950dU, 0x3d9ba24c3b7d0935U, 0x3d603c8b3e97f993U, 0xbd95a452be257f0bU,
  0xbc7c1275be17abf3U, 0x3e799f613dc63ec8U, 0xbe64b544bce98fa8U, 0xbe135c163d8506c0U,
  0x3df970ab3e280193U, 0xbe2843e23e268764U, 0xbe149664bdd8e012U, 0x3cbc28c03dc2f9ecU,
  0x3db6cfeb3e2cdec3U, 0x3dd93b913e55c4e5U, 0xbe2f3d70b99e6c00U, 0xbd5bcf2cbe35e7e3U,
  0x3d0060083ddd69f3U, 0xbd56d738bdc5898cU, 0x3e329794be631cb5U, 0x3e3453fe3dcec89fU,
  0xbcf94008bd450b10U, 0x3dbe2bbcbe7af110U, 0x3e4aae6e3e57ff5eU, 0x3c372140be113e5aU,
  0xbe7a4c86bded42ceU, 0x3dd1562cbe113639U, 0xbcb21aa0be0da3b7U, 0x3e337f8cbc198ee0U,
  0xbc0379403e8ba074U, 0x3d0e1410be303d6eU, 0xbe33ee3cbd437f10U, 0x3e2867623e2a2a66U,
  0x3e6b51083e152f28U, 0xbe5daf74bca073f0U, 0xbe49b4b33d47e9b0U, 0xbe84fd873c2e8e80U,
  0xbe051507bce502d8U, 0xbe29c7e0be39b3afU, 0xbd312e24be0676edU, 0xbbacb380bcf0c8b0U,
  0x3de01e903e490580U, 0x3e42180a3e43222eU, 0xbe0fa247be6340e2U, 0xbe498f52be32972cU,
  0x3e4fed1c3e498bb2U, 0xbdd98eb03e6914c8U, 0x3dfffe00be8bd168U, 0x3d6205c0bccc3fadU,
  0xbe0bb9253da9c936U, 0x3e817d643dad1a73U, 0x3b331cc73d8085a6U, 0x3e461d85bdb61732U,
  0x3dfb52e4bdf49fe6U, 0x3dea52c3bd8fd76dU, 0xbe8189253e68763aU, 0xbd8000a8bcbe7060U,
  0xbe29be613db52dd5U, 0xbde2d7203e8bd032U, 0xbda0d42cbe52744eU, 0x3e4a8b1ebdacbe2aU,
  0xbedf064b3cd44ddeU, 0xbe86e489beac85baU, 0x3d140fa0be2ffb54U, 0x3e443956bd419928U,
  0x3e1f3f2ebf03ea58U, 0xbe15b5fbbe88b9cbU, 0xbe5ef491bd84f6b5U, 0xbe07c449be67eaf7U,
  0x3d47f51e3e50200bU, 0xbe025ee5bd8763c0U, 0xbd4f6f8c3e867d5eU, 0xbe00c48cbd9eea14U,
  0x3e139826be152df4U, 0x3e3f4b88bd32a8aaU, 0x3a41a105be049e4dU, 0xbe2f50b03e169642U,
  0x3df6f0babd862cd8U, 0x3e05037fbe2ca505U, 0xbd7f83143c48d0b4U, 0xbe53d820bd4a3b38U,
  0xbe62de6e3d0a7e32U, 0xbe1d4394be368b74U, 0x3dc8f83cbe51985cU, 0x3ded0cb83e865fc8U,
  0xbde1e3893e28d7f0U, 0xbcd301b1bdd3873aU, 0x3e4d3000be68d58dU, 0x3e6422e8be8293d1U,
  0x3e5b6960be41880fU, 0xbe7de0bebe345f6dU, 0x3d1b78323dd352fcU, 0x3d2789f83e5757c7U,
  0x3e4c33923c350e7cU, 0x3e0924fcbe4a70faU, 0x3d1f7e18be44124aU, 0x3e89a9c2be38a655U,
  0x3d278cd83e389a40U, 0xbd9dc776bd7d9078U, 0x3d7e1d7abe8c9572U, 0xbd3076ef3e1541e2U,
  0x3e012d33be3bd4d7U, 0x3e50afb43e88db36U, 0x3d298c48bcf6af44U, 0x3e90ac14be3c94b6U,
  0x3e037f69bd794d45U, 0x3e8962a0bdcb2b16U, 0x3dc93e2c3d719800U, 0xbaf36100bdd27b68U,
  0xbef9b147bdb4741eU, 0xbebb916bbdff0f9aU, 0x3e7690d4bc955610U, 0x3da5a120bdc52b4eU,
  0xbe21ff58bd43ca83U, 0x3e224578bcbf98d0U, 0xbeb9c5733e273a7bU, 0x3dfa6eb0bdb14395U,
  0xbde390b23c26a4c0U, 0xbcfb03603ada3700U, 0xbe889348bdb76108U, 0xbe8972113cc46e70U,
  0xbe2cd6be3e6d5638U, 0xbdf48812bd3082f8U, 0xbd3906a4be35b1a1U, 0xbe4cf34ebbab4f00U,
  0x3d89f4543d8843d4U, 0xbde8fc98be80a1c2U, 0xbe21f0f8bdc0d998U, 0x3e2c56f8be12c49bU,
  0x3e50aefebe2037d4U, 0x3e14fd623e028ca6U, 0x3de44a58be1669e8U, 0xbcd7cb903e739f3cU,
  0x3d94abacbe67b1e3U, 0xbde3d1fa3e2037d8U, 0xbc95bc10bd1a039cU, 0xbe6556363d5bd4d8U,
  0x3e1912fc3dbe9a48U, 0xbc306b40be1176f5U, 0x3e0e29b8be221b50U, 0xbd35fbe8bdd4e340U,
  0x3daddfd63c362a92U, 0xbd9dc4d2bd9c6b49U, 0xbdf23f6cbe80a516U, 0xbe3651fe3e74734cU,
  0xbd633f78bdadd732U, 0x3db36ad83e06a25dU, 0xbe970b58be2bb21dU, 0x3d97ece73d841118U,
  0xbe6fe3cbbd93e9f2U, 0x3e0ae7a83e14d015U, 0xbe6c7ddd3e5ca4b2U, 0xbb82e233bd696024U,
  0x3e194697be1523f6U, 0x3e4d11cabd61bcc4U, 0x3e6f217c3dc71e48U, 0xbe1f95f2be56a296U,
  0xbda22be9be8a12beU, 0x3e1fcf283dacc872U, 0xbe844219be340ac5U, 0x3c7d4a20bb083a80U,
  0x3e3b9fd0be7c386eU, 0x3e1a4470be630939U, 0xbd757a95bd4179dfU, 0xbe611f98bc2415f1U,
  0xbd8b38283d40d2ceU, 0xbe86f596be84361cU, 0x3ae88e8dbd80e000U, 0x3e57fd8a3de2f7ddU,
  0x3d8e17cc3ca5186eU, 0xbe250fe4bdaa6310U, 0x3d83079b3eabe3c3U, 0xbe3854ce3d83c4e8U,
  0x3e92aa3f3de15880U, 0xbe303898be20e5a0U, 0x3e69a3103e2987c7U, 0xba2589e63e34ecd8U,
  0xbe3e085a3ded8ee7U, 0x3d28e2783e2ff99aU, 0xbe3a814ebe46f867U, 0x3e19da8a3e100226U,
  0x3ec471313e97a72cU, 0x3e61fb333e93be3cU, 0xbe85d0dfbdab5086U, 0x3e82a3f2be15728bU,
  0xbd27f7843f1b28b3U, 0xbe85ef83be03002eU, 0x3ea1fa1bbe920caaU, 0x3e1d88ee3d85d7e9U,
  0xbe748d983e51d882U, 0x3de95700bca5f682U, 0x3e57ae223d93cb18U, 0x3e03c5fe3e22b535U,
  0xbdbaa9aebdd8f78dU, 0xbb6b3580be713111U, 0x3da8dfbcbdc17235U, 0xbe81abecbe86bf19U,
  0xbdc89b1c3e820e20U, 0x3e509ab43d15ab18U, 0x3e412fb43e684f37U, 0x3d2ca061be43ad5fU,
  0x3e66c63c3d612cdfU, 0xbdff01b03e266e06U, 0x3d00e010be25f8b5U, 0x3d8717183e8add48U,
  0xbf1d73613e0ef57cU, 0xbea9e24bbea27890U, 0x3dc32274be68e9d1U, 0x3c8dc320bd8d07feU,
  0x3e84523ebf6a6501U, 0xbe5bca1a3e0fce98U, 0xbe074309bd9c0231U, 0xbdf5a0f2be483717U,
  0x3d873c153dbe8baaU, 0xbe76199abd2335adU, 0xbd798de23e20e1d0U, 0xbd92fe763e449f88U,
  0x3e3d0e2c3e2ba7c3U, 0xbe0e49ea3e3ac01fU, 0x3e4fadf6be987c1dU, 0x3e304e593e76d800U,
  0x3e15a0613d227bc0U, 0x3c705361bd30acf5U, 0x3e123e04bdb37228U, 0xbe57f3edbe0e603cU,
  0xbc386630be0e7f1eU, 0x3e03c53a3e22363cU, 0xbd455a58be48145dU, 0xbd9b85ec3d1638b0U,
  0xbead29503e5a640aU, 0x3d0eebb63c7e0e98U, 0x3db6aac83e871bf8U, 0x3e73545cbe861372U,
  0xbe30bd69bf0885cfU, 0x3db1cf8c3db0de2cU, 0xbe79c5efbe5d03a5U, 0x3dd0b414bc754982U,
  0xbe32cf32b996ffd2U, 0xbd964a203e302afdU, 0x3d6c9d4ebd54f308U, 0x3def93f4baeb3aa6U,
  0xbe67e6e6be77f26dU, 0x3cc7ef90be1d6861U, 0xbd1a197e3e07bce2U, 0xbe89023a3e37179aU,
  0xbd8b03893d909b8cU, 0x3d8d884fbe6cdba2U, 0xbdad92aebe0991cbU, 0x3e27e1673e41b926U,
  0x3dc0bc713e604170U, 0x3e48898e3cde0480U, 0x3d8b20843e676b48U, 0xbe809bf23cab7490U,
  0x3d3aa32b3ccc62b1U, 0xbe4c3ae2be8a1bb3U, 0x3db89978bdfbf380U, 0xbdcd26f63e361554U,
  0x3e32fd2c3e275981U, 0xbc07ea603c84dca0U, 0xbe6190b9bd21bf30U, 0x3e2a13ec3e03f84bU,
  0x3e186c303e132d0fU, 0x3e1968b8bd974adbU, 0x3dc2042a3e034d16U, 0x3c705d20be555377U,
  0x3e82ce843df3bc86U, 0xbe87f8e0bdd3201eU, 0xbd7e8429be80c4d6U, 0xbe8ab6aabaaf0c00U,
  0x3de08affbe83e44fU, 0x3d6a2dc0be5e0454U, 0xbe4c23223db927cfU, 0xbe24147cbc9d87e0U,
  0xbe617b863e3f2dddU, 0xbc3a3380be730292U, 0x3d8e1cf83e077f7aU, 0x3db8a0a03b840200U,
  0x3e4308223d05ff56U, 0x3e13c5c4be66d4f5U, 0x3d5828e8be0446a0U, 0xbe3d1b703e7bad54U,
  0x3da4ac883e4b6b08U, 0x3d02b2603df43b88U, 0x3e39e03bbe95d9ccU, 0xbd6cb06c3d043c0bU,
  0xbe6557283e3086b0U, 0x3e78b868be84f600U, 0xbe1ae209bce5e2c0U, 0x3e7bf170be0e0d27U,
  0xbcd1bc00be9f2e92U, 0x3dbeafb4bdd4ba6aU, 0xbe30d9753dc1e833U, 0x3e10b96b3e201ac8U,
  0x3df555153e5df51eU, 0x3d5f1e83be32631dU, 0x3dcdcc703e6d83b1U, 0x3dc12490bdb23e42U,
  0xbd804ffabe951ae7U, 0xbd128220be41cea5U, 0x3e1f1596be6f07feU, 0x3e87c0d43d2dde78U,
  0x3ea19d843e8f0689U, 0x3e95818cbce09559U, 0x3e4ee7583decc90cU, 0x3c63d3c03dc836a4U,
  0xbe12b2883eb04ac4U, 0xbde42922be708358U, 0xbe0a8f2dbe9cd1a2U, 0x3e62a2223e8a4816U,
  0xbaa7c73e3e0d2118U, 0xbe132dc9be7b8022U, 0x3e501a903e3fc998U, 0x3e3e6f32be917cc4U,
  0x3e8ab802be7a7c02U, 0x3dd566a43c3eb849U, 0xbe44b09f3e8629c1U, 0x3e761f1cbe71e11eU,
  0x3e19a491be8aed8bU, 0xbdbaa7d4be04384bU, 0xbe13e095be33c787U, 0x3deb5ef93e7fd340U,
  0x3d20bad2be070e0aU, 0x3e4e5d8e3d87c828U, 0xbbcaa8c0be106e98U, 0x3dffcbc43e520abaU,
  0x3f01827c3e31ec80U, 0x3ea2fe543ca5eae6U, 0xbe3bd86abe521f19U, 0xbda5cd363e6af8fcU,
  0x3e4b6f3a3f17b6f4U, 0xbd5b60cc3c2f05e0U, 0x3ebbf63cbea5b644U, 0x3d883d30be3f86ecU,
  0xbde65cf4bd6ce2aeU, 0xbd1ae0343dc889ceU, 0x3db8a4523dd63c04U, 0x3e489e4abba74895U,
  0xbe4097d0be3780c5U, 0xbd24a7d83dbdb109U, 0x3e82b2c0bdea38e7U, 0xbe36417f3ccd8030U,
  0x3e1adc10be35c19eU, 0xbe46a6ec3da8e9cdU, 0xbe6d1c5d3e30f5e6U, 0x3e1deed83e4847ccU,
  0xbe8272aebe1e18e6U, 0xbe577d74be79bff7U, 0xbe4368c03e83bf7eU, 0x3e59e7a03e26f144U,
  0x3ec262943e83c1d9U, 0x3ea5daed3e29e0b4U, 0x3e08c75c3e2ed01eU, 0xbdfcd58a3e409e10U,
  0xbdc5b5b63eac4ab1U, 0x3d6be608bd80633aU, 0x3e5a2422bd17e774U, 0x3e4668c43ccebb12U,
  0x3d9601f13e8ddf91U, 0xbd317d48bcc23abeU, 0x3dfe88f4be1023e2U, 0xbe2e15cabe54d837U,
  0x3e384ba8bde81cfbU, 0xbbf1cd803e16333cU, 0x3e6175fbbe118d7bU, 0x3e219289bd9b622eU,
  0x3e3affebbe06d401U, 0xbe33efd1bc095ec5U, 0xbe4c9942be427c3cU, 0x3e8e9df6be3525f6U,
  0x3cc2bb13bd82014aU, 0xbe280ad1be30a838U, 0x3d9855683e3fe6a4U, 0xbc9e9510bdb329a4U,
  0x3d3ad9d43e92a66bU, 0x3e10cb183ccd5992U, 0x3db3d218be06ed94U, 0x3bdee9803e4dcc4aU,
  0xbe262d04bda34c74U, 0x3de19a20be3233a0U, 0x3de867b33ce31200U, 0xbdc4cf04bd4def2fU,
  0xbe011a443e579ef4U, 0xbe81176a3e0fa35eU, 0x3d391436be0735b4U, 0x3e58fab03c437bc7U,
  0x3cb47610bdec8380U, 0xbc93e620bd159131U, 0xbe803df23e309720U, 0x3df15e283e57ae9cU,
  0x3e372d193e45fceeU, 0xbcd936613e8853e2U, 0x3e618c9c3e2dbabbU, 0x3d7bc66d3e8bba92U,
  0x3e857bd6bd9176d7U, 0xbc88ea90be5f531cU, 0xbddaa012bd9dfe5eU, 0xbde79f6c3db6c628U,
  0xbcdd9ad63e93af6bU, 0xbece0889bd5d9e53U, 0x3e348ada3e0ac9d2U, 0x3e1314a8be5bfa7eU,
  0x3d90e540bf06a979U, 0x3d8573fc3e206a72U, 0x3d3271783d3cc88dU, 0x3c2011603da55329U,
  0x3e63f18abe077c2dU, 0x3e1aabd23dda324dU, 0xbdba727d3d115548U, 0xbe1dac9fbb06da44U,
  0x3e5effc6be192b9eU, 0x3d42af203d426d15U, 0xbe4555c4be20d835U, 0x3e57c806be3a6bfeU,
  0x3d8f4c723d218ae8U, 0xbddcecf1be073617U, 0xbe44a83abdcdccdfU, 0x3d0aec713e5203daU,
  0xbd78ca1b3e6a7a6aU, 0x3d9f6678bdffa370U, 0x3d7d6da83dc270ecU, 0xbc2d5da0be7baefcU,
  0xbf1439603df4e26aU, 0xbdcc18e23ddca3a1U, 0x3d9838083de4a1e0U, 0x3df125c03e7516ecU,
  0x3e56c2ccbf23da2dU, 0xbdf8063abe4ff2fdU, 0xbd7a388ebe6c3b6aU, 0xbe4ac3e03e39e0fdU,
  0x3dee1058be98969dU, 0xbde687e8bd0319bdU, 0xbf6cfdd23e21112cU, 0x3e678a503e083a52U,
  0x3e7ee204bd4a0b53U, 0xbe13abfcbe33142cU, 0xbe922eeabe91f0a7U, 0xbed280f4be5f7acaU,
  0xbee121afbe398464U, 0x3ea8255bbd926ca0U, 0x3c102d60bdffec08U, 0x3d292ced3e21ef94U,
  0xbf09019abdcd00d9U, 0x3e2bd660be222e54U, 0xbe8af0c33e6402e6U, 0xbe322e223e5b627aU,
  0x3e5b7d2bbf284191U, 0xbceeb720be8202deU, 0x3e083db0bc98fc80U, 0x3defdd40bd6a1644U,
  0x3e7519dcbe5a5c6eU, 0x3d76b370be17973dU, 0x3e3800573e0cb46cU, 0xbd23ab8c3c95cd84U,
  0xbd26b1193dbeb476U, 0x3d8c0870be4463acU, 0x3e0ccf70bd1ec3e4U, 0x3ceb79203e590edfU,
  0x3e77cedcbe4487f3U, 0x3a8d0c00be33b09fU, 0x3e3f1e053e510a1cU, 0xbe5f44c63ce7c870U,
  0x3d8047133e85f7f8U, 0xbe0cd86bbe71ac6cU, 0x3db7658c3def80c1U, 0xbdbc0c2a3e74cad8U,
  0x3e1a1581be3e6673U, 0x3d2308403e3a58caU, 0x3e2221e8be2b080eU, 0xbe869f6abe6b8d58U,
  0x3f02a4bfbe4766f3U, 0x3ec746643e23bf18U, 0xbe8bdc2c3e00d730U, 0x3e35cbb2bd97f316U,
  0x3e173a5e3f53e289U, 0xbde6864cbda9ded8U, 0x3e214a09bdd7c361U, 0xbda67252bd1849f9U,
  0x3d8ab458be4afbd8U, 0xbe38a33abe228ca0U, 0x3d3d65c83ca09900U, 0x3e803692be30aac3U,
  0xbe0a45fe3e73eecfU, 0xbc737b20be2ac7f8U, 0xbdfa8d28be1ace80U, 0x3e45f506be3b802aU,
  0xbe76677bbe6c2fb6U, 0xbe4ff987be68edc8U, 0x3e254fa6be842c89U, 0x3e4bb8b73cd24770U,
  0x3e7b43673e3bad38U, 0xbd9112783de65fc0U, 0x3e8962eebda5961aU, 0xbe456b1e3dc4b18cU,
  0xbe42ad73be6519d8U, 0xbdf0bb0abe1b8692U, 0x3df9af4c3e5c71beU, 0x3d404d60bd543294U,
  0x3e7b56b03d83e658U, 0x3e6d76a83c650b20U, 0xbe8a97da3e60bf0dU, 0x3d95617c3e3f86beU,
  0x3e7894683e342eb5U, 0x3d9b9b1c3e4a3278U, 0xbd1ad7dcbdbccf40U, 0xbe5396c0be19a603U,
  0x3c6fbbc0be7c6fd6U, 0xbdbe01fabe9c0f3aU, 0xbe28daa5bea014e9U, 0x3d232f54be11628eU,
  0xbe5068053e8790b0U, 0xbe9a59fa3e440ee5U, 0xbe873d9bbe0b0658U, 0x3d7d593bbbfb0a80U,
  0xbe81ddc1be5f2a81U, 0x3b990400bd57d54cU, 0x3dce42083e82cbf8U, 0x3da8d30cbe775fbcU,
  0x3e5322d03e0a1fcbU, 0x3cc60aadbeaf578dU, 0x3ddf4464bc694c80U, 0xbdcd5804bb9c4b40U,
  0x3d44a918be924e0bU, 0x3e272ac8bdb1e158U, 0xbd0327fabe51b782U, 0x3dee6dc43c2dc362U,
  0x3e71a65cbe1dbf92U, 0x3e149010bddd2126U, 0x3de4a09c3cb687e0U, 0x3e69b2643c9cd2f9U,
  0x3e83e9a43e3f2302U, 0xbe866363be8c0aadU, 0xbe53e8b0be72e5f8U, 0x3e14508e3e44d9daU,
  0x3d91f7243b9c4dc0U, 0xbe519af8be8049f6U, 0x3e6dea8c3de4fbc0U, 0xbe825e18be7e6278U,
  0x3d547cc83c4820a0U, 0x3e54120ebe520606U, 0x3e5e2366be399942U, 0x3e72d1803dc571dcU,
  0xbe8a352dbe05141bU, 0x3e5b3da23dd90f2cU, 0x3da17dd43d78b960U, 0xbe313f60be1e08c2U,
  0x3e2665febdafb71eU, 0x3dc3f8443e726de0U, 0xbdf0fc983e80add1U, 0x3b88b8003df5c64cU,
  0xbe49cdebbdf0ab2dU, 0x3ded5e903e1d65f0U, 0x3c97985abe47883bU, 0x3dd949c8be983eecU,
  0xbe02574bbea95720U, 0xbe1ddf143e79d12aU, 0x3e6e86893e450d7cU, 0x3b6bca73bd077c64U,
  0xbdaaa373bdd95200U, 0x3dbeb4c23d3152caU, 0x3e1c946e3e27db3eU, 0xbe937c73bd3528e8U,
  0xbe024ecc3bb00340U, 0xbdd7e526be0f77f7U, 0xbe0bbf2bbe883b58U, 0xbdf47000be478f51U,
  0xbda610c83e2ff325U, 0xbdae1619be68f072U, 0xbe00aa16bdac5ecaU, 0x3e83f61a3e7f3838U,
  0xbdb365003e5cf251U, 0xbdeb78f23e4b8e0eU, 0x3dfd3f443d9def86U, 0xbe3df2133e13ba24U,
  0x3e7ad51c3e0a29b2U, 0x3d142930bd704b3fU, 0x3e8f1f16be7a0ec5U, 0x3db0f45cbd478a5fU,
  0xbda338863dc89488U, 0x3d8ea490be544c8aU, 0xbd220c6cbe404418U, 0xbdf818a13e88d5d4U,
  0x3e8fcddf3e2ed140U, 0x3df04699be047137U, 0xbe3ee828be2f85e5U, 0xbdcf73073df779acU,
  0x3e5c9c1dbd3d3152U, 0x3db98c90be2c0984U, 0x3d7a9be8be580c64U, 0x3beed880be36dd4dU,
  0x3e8b24cabe6c12c4U, 0x3e0798c63e913d2fU, 0xbe84efd4be040f08U, 0x3e5edd92be879e0aU,
  0xbe8657be3f2298beU, 0xbe86a61e3da5aa54U, 0x3e8c77f2be1f6be2U, 0x3d9836bc3e9726d9U,
  0x3dc46240be3887feU, 0xbe8656fb3e514c62U, 0xbe64881a3e724bf0U, 0xbda7e95e3d9cf374U,
  0x3e608c583df5cfb8U, 0xbddc0beebe1f287eU, 0xbd086bffbdc58c47U, 0x3ba553dbbd583f00U,
  0x3deb6f0ebe4813e6U, 0x3e1bf1a93dcaa410U, 0xbde2d9c23e4c6341U, 0xbe004cd6bd358f20U,
  0xbd85146c3d7233c9U, 0xbce939783c946c50U, 0xbb972fc03e3ab6f6U, 0x3e26d2723e05da54U,
  0xbf7d7d413ca5d762U, 0x3d971fabbeb654fcU, 0xbd73104c3e1d1f88U, 0xbd092174be664b82U,
  0x3ac86f003dded202U, 0xbe258d0c3e07ec22U, 0xbe88b5f43d05ccdfU, 0x3d7c0e28be4c74daU,
};

STAI_ALIGNED(8)
const uint64_t g_network_gemm_1_bias_array[16] = {
  0x3df46c44be531376U, 0xbe44b880bd816e98U, 0xbcfadc51be94698eU, 0xbe33e105U,
  0xbd77409a3e4332aaU, 0x3e691c7eU, 0xbe81619fbd70535dU, 0x3e42478d3e49cd3fU,
  0xbcfa230dbd07055bU, 0xbee37769be93bfe2U, 0xbdfb5680bb1294e2U, 0x3ddfcfd3bd0a327cU,
  0xbed33e633e332d72U, 0xbd581c21bcbdd773U, 0xbe80c6debbe856d1U, 0x3e4bb9c3be4780bfU,
};

STAI_ALIGNED(8)
const uint64_t g_network_gemm_2_weights_array[512] = {
  0xbed90162bb12009fU, 0x3dcfac85be22bee2U, 0x3e72e394beb64a74U, 0x3d3ca8d0be83426cU,
  0xbe170aa43e7d3b6dU, 0x3e8dedefbe48cd12U, 0xbe36574f3be89b67U, 0x3e4ce2e23ea2201fU,
  0x3e11ba00be879bf1U, 0xbf0ba101bee522caU, 0xbe5ecc653de8e9dfU, 0x3e1725463e6b5e34U,
  0xbe840c96bf03f685U, 0xbe19636ebea69301U, 0xbe67c1db3c62db37U, 0xbe9424043da45df3U,
  0x3e38fbb0be6bfac8U, 0x3e5c79aa3e4b0d31U, 0x3ea797a73e09e475U, 0x3d231e983e4f1b33U,
  0xbe6866123c866603U, 0x3e810bcbbee0c51fU, 0xbe0b00a13df3b63cU, 0x3e69213a3e8acfc1U,
  0x3dd2baefbe708478U, 0xbefe97b0bea6fca8U, 0xbdcf25c33e9b8cf9U, 0x3e692dbf3d19ab76U,
  0xbe7c4950be920289U, 0x3e41eb80be5859d6U, 0x3e3252e93e3ef6bcU, 0xbe26c9f93d2bd4a2U,
  0xbe61fcf43e336122U, 0xbe6081b83d4e72ccU, 0xbe821766be3cece6U, 0x3de7499c3e678d9eU,
  0x3e142f1dbcec1790U, 0xbe9a320c3df3a20dU, 0xbe82545b3d2f5840U, 0xbe809b373dc9d6ecU,
  0x3d661c8bbb0c8f29U, 0xbedf3dc3be196afdU, 0x3e509eee3d2ba155U, 0xbea063b03e4eed44U,
  0xbe9562afbd7d2290U, 0x3e375ee13e534402U, 0x3e866d0d3e936625U, 0xbeef8f883d0f1244U,
  0xbd119646be828d43U, 0xbdd063c5be2eb5c8U, 0x3d19d9d03dfdff8fU, 0x3d3263603e8a2ee7U,
  0x3c30641c3d8ae132U, 0xbe8b0954bd64da6aU, 0x3eb48823be829dbeU, 0x3e3fc21d3e843b5eU,
  0x3e3bfa223e0d29a9U, 0xbc81c1473e87a8e1U, 0x3d6651f5bd7f4859U, 0x3c5253bd3e49b079U,
  0xbea2cd723e570c6aU, 0x3e500605bc64a5a0U, 0x3e437d233e29944cU, 0xbec1274e3e88b24cU,
  0xbdbda85ebdcdad81U, 0x3e551bd43e434129U, 0x3c4f2c09bf661caaU, 0xbe49ec1abe1c608cU,
  0xbdafc4ea3e8e22d9U, 0xbe11771e3ecadf69U, 0xbe7cdbcf3e572904U, 0x3d9ff49f3d946e32U,
  0x3dd24e1cbd94ec06U, 0xbea4ab85be9b33a3U, 0x3dcf05ef3dbf6e66U, 0xbe3a4c55be0aeb6eU,
  0x3e6396d3becc6591U, 0xbe50a8d43e2bfe0eU, 0x3e075e78be20a900U, 0x3dfba3bbbd9d6d8bU,
  0x3ab0e758be62ceaeU, 0xbe63d7963e82f640U, 0xbd62b0b6be660f25U, 0xbe0944a63e8f0d14U,
  0x3e016abf3def48aaU, 0xbe547572beb07f03U, 0xbdb203f3be29c2a7U, 0x3d4b2ede3d9a3166U,
  0x3c6c767ebe959036U, 0xbef0f309be89f995U, 0xbbd9e390be0d8f11U, 0x3d45e38a3eb74e19U,
  0xbe48df183cdb87e0U, 0xba7242a13d47ce78U, 0xbda4aab0bde9e208U, 0xbe8962903e10825cU,
  0xbe2c1b0ebe32575bU, 0x3e19cb5a3e2eb11aU, 0x3e5140a2be0f0688U, 0xbcdfa750be20051eU,
  0xbb16701d3d7a0e2dU, 0x3e9b5d9dbe9ebe37U, 0xbe38ac533e516e30U, 0x3df0bba1b9e97252U,
  0xbd2b91b83e66aa76U, 0x3e8d5d7a3c4a519eU, 0x3e1b397c3e347acbU, 0xbe21da19be58eff6U,
  0x3e123d2cbe245a21U, 0xbe586191bcbd8530U, 0xba0658f33e93dcf3U, 0x3e3160223e71168eU,
  0x3e8679223e7d0d26U, 0xbe08cd753e191b92U, 0x3e04706cbe6d9f04U, 0xbe91e8ac3c5f423bU,
  0x3e256193be9005c6U, 0xbe37b7823e40363aU, 0xbdc1ba76bdc88305U, 0x3e651d6cbd92b8e6U,
  0x3c0a4320bb1f50b1U, 0xbdde52b43e5e8741U, 0xbe8d01a0be95bcf8U, 0xbdd84fbbbeb35903U,
  0xbe43df783d7cee45U, 0x3e770ba8be330a36U, 0xbe3a607fbc57c0a0U, 0x3eab70943e7f2c9bU,
  0x3e54ed10be46deffU, 0xbe821071bdbbb082U, 0xbde5a4f23e3e5840U, 0xbe872d86be3a0b87U,
  0xbe1eb841be8cda58U, 0x3e1efab6bdc8e818U, 0x3d67bbd3bdac2fd4U, 0xbdd20e6cbd83e157U,
  0xbe807daf3dbc8610U, 0xbd41d4383d8be2bcU, 0x3dbdc457be86b4c7U, 0xbe99cb253e1689abU,
  0xbeb98d943e4ef32eU, 0x3e46affa3ceee620U, 0xbe89669a3dac0e28U, 0xbd73d2a4bd9bcba6U,
  0xbe9fd5e3bdacb48dU, 0xbe14d572bde27239U, 0xbce06537be8ef32bU, 0xbdebc7e83cc389e5U,
  0xbe8eee33bdeb7cb4U, 0xbd9d219abe301a53U, 0xbe6c138fbe41b137U, 0xbdb940d43ebf77dcU,
  0xbe0014ae3dc94106U, 0xbf1e644cbe721dbeU, 0x3e927b383d6d1e84U, 0x3e5426973e0ba2d5U,
  0xbea3a9f0bea3eb2cU, 0x3e02b9aa3de58cb1U, 0x3e2b551dbe2279a8U, 0x3d9e0924be17b004U,
  0xbe22ce69bdce0411U, 0xbe3ac7113ca9fd0eU, 0x3e0a056ebe19e916U, 0x3d9a676cbd8b06f3U,
  0x3e284340be4a02a2U, 0xbdf9037a3efc3947U, 0x3e9391703b1a0c83U, 0xbd743544be18a8d9U,
  0xbe419ff93da029dfU, 0x3ec07a0c3ef5be61U, 0x3e3794053e699717U, 0x3dc97aff3ea50720U,
  0x3ed75059be02eb2aU, 0x3afad48bbe33b5c8U, 0x3a582c993d217710U, 0xbb81e2473eb47b33U,
  0x3e932f8bbb0de0dfU, 0x3b0d91693e1ef35fU, 0xbe1a8c42be1f4626U, 0x3dbbf7a83e886c1dU,
  0x3dc1b54b3e01e140U, 0xbe700e55bec36766U, 0xbe4a74e7be27cf00U, 0x3ddec7afbda21945U,
  0x3db00a1e3e86757aU, 0x3dcc58dfbe1a88a4U, 0x3e19c66ebda086c9U, 0x3e8073d8bd95dce3U,
  0x3e0dfb873e6fca0aU, 0x3e55a6fb3e65c74eU, 0x3e3c8448be7b4760U, 0xbedfe204be4b1270U,
  0xbdb4f39a3cc34310U, 0x3be5a0c03e27a898U, 0xbe4e234bbe5d3f1dU, 0xbd7280683e515aeeU,
  0xbe58e3e3be2e8e2dU, 0xbd6e88dcbd9d5a70U, 0xbe7ea1ffbe732df5U, 0x3e4c6c5abe0fdf11U,
  0x3e28dc3cbdb675dcU, 0x3d0386503dea1ca8U, 0x3d1134e83d226730U, 0xbd4f3960be49db42U,
  0x3e0064ba3d3edad0U, 0xbda3855cbe2b5f03U, 0x3cd15e803e909847U, 0x3d415da8be66cd1aU,
  0x3e8b274d3e5f4c88U, 0x3e530b3abdefbc51U, 0xbd0b2b2ebe29a243U, 0xbe9355ec3e7a0468U,
  0x3e5d64863a972fbbU, 0x3da183283d99f763U, 0x3ed9bb5b3e1e0aebU, 0xbe253a3f3d16e5c8U,
  0x3e2ba7f83e2976c7U, 0x3cfab5dbbd3389eaU, 0x3e8faf893ec33c4aU, 0xbe0c3dc2bddab75fU,
  0x3dcc803c3e531f58U, 0xbe4d6d4dbdbe6f8cU, 0x3e728edabdb25c22U, 0xbe061f1e3df958f7U,
  0xbe8908c33e96cb31U, 0x3e9b7f8b3e35a840U, 0x3e43bfdabe5569acU, 0xbe555b60bc714440U,
  0xbd36a9c0be924659U, 0xbe4de5e73e66cbd6U, 0xbdd2b0c6be5c20a4U, 0xbe2080f33d3dbd88U,
  0xbde001d03bc51e80U, 0x3d444478bdb898a2U, 0x3c960aa0be030b9fU, 0xbc840fb0be2b6249U,
  0x3e65fcd2bce54aa0U, 0x3e8728d1bdf93580U, 0x3e979ffbbe258e47U, 0x3dab378cbe2dff2bU,
  0xbedf27d8bdde4a6fU, 0xbead6e8f3d5f9c28U, 0xbe3c3507bd5981fdU, 0x3cc6a3703e48a150U,
  0x3d11a5eb3d226886U, 0xbe03377bbd3be0c0U, 0xbcf66bdfbe29f0d3U, 0x3e23547e3ea4baf3U,
  0xbe43809a3e5c31b2U, 0xbf17e5a7beb55d64U, 0x3e1d88a0be9f5feaU, 0xbcc21e233e004bebU,
  0xbee7f97cbe6824a5U, 0x3e3e7f3dbe6569f1U, 0xbce89447be5cf8f6U, 0xbd9c860ebe8a991cU,
  0xbe11ec443e4eebe1U, 0xbbbba954bdfb9e99U, 0xbd9bc7bc3e281223U, 0xbd5106583d451588U,
  0xbe0453cd3de223f0U, 0xbe7256983be6a2f2U, 0x3e245fa83e98f897U, 0xbddcfa013d5a8b48U,
  0x3e6994923d023a96U, 0xbdcf563bbe70a13cU, 0x3e45e0f33e404cc3U, 0x3cac003c3e730585U,
  0xbecc0b753e47ef4aU, 0xbc83b6cc3d1f21a0U, 0xbe244b8e3c86ff10U, 0xbe94435b3c0acae2U,
  0x3d9d084cbe68ad51U, 0x39e9d000bd751fb8U, 0x3d7a8030be111833U, 0xbcfeae10bdfe9d4eU,
  0x3df0621cbe29a687U, 0xbe9c0bb5be9c5039U, 0xbcdc1330be94f7d0U, 0xbe865a683e6c2686U,
  0x3b2f9800bde72de4U, 0xbe87c4e73d648048U, 0xbe86ce0fbe5bd1a4U, 0x3cd5dfc0be6d884cU,
  0x3e8c581fbe6eaff0U, 0xbe634474bda0f92eU, 0xbd7601603e82aa61U, 0x3df95798be971245U,
  0x3e6409bd3e4b27ceU, 0x3e4a2c9abda43912U, 0xbe677fbbbe2e21ebU, 0xbdad63aabe7cdfa4U,
  0x3e56e1fd3dea622bU, 0x3e54450e3a56d990U, 0x3d2f9328bdb3c47dU, 0x3e4feadfbea79253U,
  0x3c885140be871d7dU, 0xbdea86b83c9999d0U, 0xbd3c1936bea816b0U, 0xbe859ee3beb7d713U,
  0x3ded764e3f015217U, 0x3d9363f3bdfa502bU, 0x3e2d9b813e675393U, 0x3ebea91bbe67d328U,
  0xbe23f735bce0b0a1U, 0xbe7c1453be27fbf2U, 0xbe0a3bd73d06a305U, 0x3dc0bdd4bdec7234U,
  0x3e4cb22a3d964f46U, 0x3dd6af483ed97f02U, 0xbede431bbdb68ac9U, 0x3e784dec3e84fa18U,
  0x3c9fee213de61e00U, 0x3dd1ffa3bba2889fU, 0xbe2a96f43e03a7cbU, 0x3c418eb33e3c7120U,
  0xbd7d2759bf1547d2U, 0x3e8f4ccabd853b8eU, 0x3d2b205d3d8abc2cU, 0x3ed2a9ec3bc27da8U,
  0xbe7cecb4bea3fd83U, 0x3da3d8923dd6c76fU, 0x3e8a472d3df623efU, 0xbe77d984be4a1aceU,
  0xbda2d620bd992b04U, 0x3d1c4550bf1c385aU, 0xbe2357fd3c8d4951U, 0x3d0ce9d63da08a34U,
  0x3df2ac093e389feaU, 0xbe15bb693dc5a107U, 0xbdce48debe08383cU, 0x3e3692933e7153f6U,
  0x3e075720bdfcb450U, 0x3df38981be0b05e2U, 0x3e2eba07bd39ed18U, 0xbce3d004bd026648U,
  0xbe32071cbb587f9eU, 0xbe8608f7bd7cd221U, 0xbe75a4e1be873602U, 0xbd9ac64c3e165f9eU,
  0x3e13bf5ebcd2f4e1U, 0x3c52f3a03e9e998bU, 0x3e5470753df83768U, 0x3dbbd5223d54e00aU,
  0xbd2cc423be0bfae9U, 0x3e73ee983df9e481U, 0xbebfeb16becae1caU, 0x3e2bff72bba443a1U,
  0x3d82904abd3ee43bU, 0x3d5ae5423e60afa6U, 0x3cf3f5823e18a1deU, 0x3d5874193e86df73U,
  0x3e31be7ebe1f4906U, 0xbd2cd668be55a67bU, 0x3e15aa62be810674U, 0xbdbc0ef63cb64abaU,
  0xbe75871ebe467c92U, 0x3e0bdb423e082809U, 0x3d37aa19be5fc500U, 0xba81b06abdc8de9dU,
  0xbe7173ffbe4f3150U, 0xbebab3ad3e345f11U, 0xbe0a6dddbcacdc5aU, 0xbeac021f3cf7c201U,
  0xbd74b4eabe56a236U, 0xbc87c2003e9a23b1U, 0xbe1c205c3d993608U, 0x3de93a043e71c189U,
  0xbccc4bb03d822434U, 0xbe402cb8be2c54a7U, 0xbe95116a3e05a8e8U, 0xbe2fd5f3bd2894f0U,
  0x3e418fe63e0f1dc4U, 0xbdbe2b58bdcd4d22U, 0xbe60351ebd621468U, 0x3c566040be8feb3fU,
  0x3e798a56be7c0a03U, 0x3e57eaf2be8cd4fbU, 0x3e0d99cabe395d3dU, 0xbe36cb6b3ccf7b60U,
  0xbe96a75a3e1b1758U, 0x3e202afc3e619cb2U, 0x3e1e8dc43e2780caU, 0xbe3e630c3e8e34c7U,
  0xbe182c043deacab0U, 0x3e7d0616bdd4e656U, 0x3d853544be5068b8U, 0xbca900203e89e661U,
  0x3e7c4012be32a7c9U, 0xbe4ceebcbd6e0cf0U, 0xbe9c60af3d8b0274U, 0x3e937811bdbcd78eU,
  0x3e874b6dbbea70c0U, 0xbdfe009ebd251980U, 0x3e3c5de23e65ff5eU, 0xbe2c777bbe34a0eaU,
  0x3d93aecc3dd1e8e0U, 0xbdf91334be52f82cU, 0xbe76cb1ebe998d20U, 0xbdc99762bd762a40U,
  0xbdcaded23e7d7fb6U, 0xbe8794c53d5d4552U, 0x3e8e4e10be0bd8f5U, 0xbe0661b5bdc21ef0U,
  0xbe83a179bd91d440U, 0x3dd09520be39de6dU, 0x3cec85993e880e23U, 0xbe40e043bda4fa0aU,
  0xbe0800b93e0c7f46U, 0xbdfef7c3bde87e12U, 0xbe4d765ebe0b60e7U, 0xbe784dd03e53357fU,
  0xbc1f49f23de3afe0U, 0x3e74e78e3e0d59b8U, 0xbe066f2bbdf94d1cU, 0x3d911a9e3d898271U,
  0xbcf66c50bd9b2132U, 0x3e0709dc3e7df2d2U, 0xbe249200bdadf928U, 0xbda6a254bdb0f90aU,
  0x3dc5b56cbda910c4U, 0x3e3fb89ebe3d3f02U, 0xbdc2c9f2bde94d90U, 0x3c53b880bd0288d8U,
  0xbe5e5d3a3e06ff16U, 0x3d83b6b03e0fb00cU, 0xbdbfdf0cbe8ca57eU, 0xbe8702b23de11538U,
  0xbc683a603d63c148U, 0xbe7a3f00bcaa9d70U, 0xbe8b1bf2be2d1bd3U, 0x3e283d1cbe1f66c7U,
  0x3e2442ffbe9c697aU, 0xbe6a7583be8d7c53U, 0xbd9e725bbe8d8364U, 0x3bd86340be1541e9U,
  0x3e84447f3e22fc85U, 0xbdfd487c3e4247ecU, 0x3d2260e8be5c4115U, 0x3d84d6a0bec0ddc7U,
  0x3e4d5d223e0d4061U, 0x3db9b0eebdb094d6U, 0x3ced58d13dba9c0dU, 0xbd457b45bebaddd4U,
  0xbd1b0254be095b69U, 0x3cc2327b3ea342c4U, 0xbc4820cf3db5d03aU, 0x3db437d0be7ffc3cU,
  0x3e72a17dbe20a9c7U, 0x3e66e740bd5816deU, 0xbe544ec23de73697U, 0xbe95a02abeba5d17U,
  0x3e9209fbbe710bc4U, 0x3e9085753dde319bU, 0x3db0782dbe221e02U, 0xbe4a02d53e0666edU,
  0x3b7b43253da6748bU, 0x3d86e4873e9f86e4U, 0xbe73497b3d66d561U, 0xbd0ae5d63d9e1e7bU,
  0xbe46a68d3dea01acU, 0x3e8d71953d99937bU, 0x3e8cd170bc439492U, 0x3e4272d73d3c327bU,
  0x3e038f823d601068U, 0xbb9a45c0bdf212e8U, 0xbe7088e7be859ce8U, 0x3e38ac9cbe3495a0U,
  0xbe8e3236be9c01b5U, 0xbe845a4abe734c00U, 0x3e23be2ebe1da191U, 0xbdd9bb1abcdba460U,
  0x3d1f05883e813153U, 0xbe0ce0bdbe85535dU, 0xbe219c2c3d987c30U, 0xbdc9f10ebca263d0U,
  0xba845700be77f279U, 0x3d6a9bf83cb88070U, 0x3e7211eabe3df493U, 0x3e78bc463e3f0a22U,
  0xbe7794d1bd889212U, 0x3db3ebbf3e5c4305U, 0xbdc29900bd8a1b26U, 0xbe660ce4beb044b3U,
  0x3e536edcbdb562fcU, 0x3ca35db0bee744e4U, 0x3e4833c03e368b2dU, 0x3dd0f7d53c6cb0a0U,
  0x3d5b6d943d100e31U, 0xbee513fcbc328772U, 0x3dcaa102bbdf3d30U, 0x3e06ac223d645b57U,
  0x3e0286cbbe8dcba7U, 0xbea643b4be51f79bU, 0xbd276e0e3dff6e84U, 0xbf0a70fc3c07c9b2U,
  0x3ea8b138be2d0216U, 0xbe525638be4530ecU, 0xbe90219abd699728U, 0x3e5e5c0ebe718113U,
  0x3d220403bcbebff5U, 0x3d7c67683eb6527dU, 0xbd9f15013dc7a667U, 0x3e21ad5bbe188e07U,
  0xbddacb2e3e4a4eceU, 0xbe5f6670bc31c780U, 0xbdaf8d26be6df1d6U, 0x3e80cac0bebbd13bU,
  0x3c9aa0ef3e64c981U, 0x3e6c458a3e32bff2U, 0x3db5f4ef3e6b4fcdU, 0xbcdb0dc4be9a6412U,
};

STAI_ALIGNED(8)
const uint64_t g_network_gemm_2_bias_array[16] = {
  0xbd51f8dd3ed3ee6fU, 0xbe18f4b43d28cb5bU, 0xbd128f2b3e4dcf36U, 0x3da9a3e8bc097cbdU,
  0x3e8f5180bd9a3bbaU, 0xb8bc85efbeb9e0fbU, 0xbe0a56ba00000000U, 0x3e55d66800000000U,
  0xbd8a6bf0U, 0x3d2c372e3da9ab56U, 0xbe10d195bd841db3U, 0xbceb84c1U,
  0xbc0325e300000000U, 0xbd38298e00000000U, 0xbd500eb2U, 0x3d97b3783c863aa9U,
};

STAI_ALIGNED(8)
const uint64_t g_network_gemm_3_weights_array[256] = {
  0xbe91792f3f0c95e5U, 0xbeba441d3e0a064cU, 0x3e221e5b3de242b4U, 0xbcca2febbe5f1db7U,
  0x3e987d9b3dd7f3e1U, 0xbe11eb80be0f9994U, 0xbe721324be05c9d2U, 0x3e8d9c233e5f0226U,
  0x3d33ed20be613a8fU, 0x3ea69f1f3d1b3f1eU, 0x3dc13e29baf5fcb5U, 0x3dda68ec3e33dad8U,
  0xbe186b2fbe948bc0U, 0x3d0cd3593e9f8ef3U, 0x3a0ad0003d4cd6e7U, 0xbea1795abe3eafd9U,
  0xbe8f5253be0b03b6U, 0xbe6d093abdedebe2U, 0x3d5e1568be8db40fU, 0xbe6c63313d8d6a24U,
  0x3d9d46883e5ea9faU, 0xbe2c19a33e2c8336U, 0x3e585906bdb93d3cU, 0x3decfb80bd9a8028U,
  0xbe63c6b3bea6d03cU, 0xbdb69e50be6eee92U, 0xbe5acaa23dfe9938U, 0x3e2eb38ebea5bd58U,
  0x3e063e18bd3866a0U, 0x3e7c7dbebd9cb2a8U, 0x3ca390f03eb24591U, 0xbc1158003d6b0e58U,
  0x3dd33f703d0d08a9U, 0xbe11513bbea2e6dbU, 0xbe94dc903e56b9e2U, 0xbdf9aa233e474456U,
  0x3e3071143dae4198U, 0x3e7ac69ebdc7cbc4U, 0xbd111178be36e015U, 0xbdda6de93c15c960U,
  0xbe650b1b3c167126U, 0xbe520e943d8a1659U, 0xbecfdf71beb70630U, 0xbb7cbf00be1a397cU,
  0xba6633eabe64ba35U, 0xbd4aa087be175250U, 0xbe8288e8be0f2242U, 0xbc5f6efe3d9bc3d4U,
  0xbeb1e0653e8f63b9U, 0xbe0a46d9bd6b4008U, 0x3e05eef2beae1490U, 0xbd8ca8e0be9b57aaU,
  0xbdc255b03e4cede2U, 0x3e3632e6bbdd97c0U, 0xbe0046b9bdc5b2e8U, 0xbde356c63e8ed4e7U,
  0xbe76187f3d80df64U, 0xbea5bcc8be6e5c98U, 0xbe4371edbea662d7U, 0xbbaefcc0bea891daU,
  0xbdd49028be526d57U, 0x3e128c74bd3a2c98U, 0xbe94f428bea8b546U, 0xbd3aebe0be7edcb2U,
  0xbe3b2b3f3eebdf5bU, 0x3e9823f63e26c4f5U, 0xbd4c6cc0beabd112U, 0x3e90ce083d7d8105U,
  0x3cfc597f3e524c64U, 0xbe4989e1beb5fedfU, 0xbe78119e3eb40be1U, 0x3e890aef3c72b080U,
  0x3ea35bdd3e946305U, 0x3cc8f7d13e931cfcU, 0xbd4d68fd3e5b5a44U, 0x3d1fa4e83daefb86U,
  0xbd3f9a50bd6fd4c0U, 0x3dcc2b793e94eb27U, 0x3e0489ca3e0f09bdU, 0x3e35f793be936ebdU,
  0xbd328bec3e6e932eU, 0x3e0a7fc13e01cacdU, 0xbea89b8dbea378d2U, 0x3e4bd5e4be075dc0U,
  0x3c8ecfbc3d32c2b8U, 0xbe6b7724bca90127U, 0x3c4263ed3e7c8cd2U, 0x3e531a25be3773c7U,
  0xbe4b39cdbea83d65U, 0xbeb1f0303e1e2910U, 0xbbb0997ebe82fa48U, 0xbe9939e63cb16370U,
  0xbe80593b3cc1bf50U, 0xbec7fd6ebe0dcf64U, 0x3e436bd2becd701fU, 0x3d064d923d00bc94U,
  0x3e1ea1df3ed2134cU, 0xbdb006353dd301f4U, 0x3dffd266bf07bb60U, 0xbeef9470bd9a8ff6U,
  0x3e1b82083df23ac4U, 0xbd0b9fb7bdfb6a68U, 0x3e2ec4d63bae49c0U, 0x3ec40730beaa96ceU,
  0xbe97ae12be73ef20U, 0xbc9e1d51beb46190U, 0x3e1c1592bd0a0a3fU, 0xbe0c9d4eba9df1aeU,
  0x3d2ee1c03dc4c1a4U, 0xbd830b9dbea62cc5U, 0x3e8e54fdbe9056faU, 0x3cab33653e427f51U,
  0x3c451af4be23ccaaU, 0xbd298e41bbb29ab2U, 0x3e32030d3e0de489U, 0x3dd562983d194bd8U,
  0x3e26dd623de4af50U, 0x3e47850ebebf172aU, 0xbdd350de3dfacaf4U, 0x3e892b323e36771aU,
  0xbe50c190be6033bfU, 0xbece5811be8c1c33U, 0xbd65279bbd6c6fadU, 0xbe98b4223da41940U,
  0xbeb20398be8fb538U, 0x3c8065d5bd3603b0U, 0x3e02e94ebe1c25c0U, 0x3e7905bfbea0f035U,
  0x3e4d82673efd0e3bU, 0xbdd79c4ebd8bbdfcU, 0xbe3aaf9c3deaa3adU, 0xbdfaff4b3d560abbU,
  0x3ebc8d37bdf6b4f4U, 0x3e5f9b07be2d4f86U, 0x3e648b0cbeae5a97U, 0x3bac05843b9b8940U,
  0xbe86a0dc3d03fb63U, 0xbd38a370be5c41d8U, 0xbc8d5994bd6a5a8dU, 0x3e812de1bdd0e121U,
  0x3dfafdc6bded4b8aU, 0x3d32950dbce9c490U, 0x3e985e653d1d02c4U, 0x3e178bfc3e28c46aU,
  0xbdffbc11beade0c2U, 0x3ea01992be685824U, 0xbea51cd33e0a3d9bU, 0xbbacc8733cd7cdfdU,
  0xbf2e1ce93c0271d5U, 0xbd861a6cbdb0d71fU, 0x3ea04ac53dbd687cU, 0x3e137f2ebea6da96U,
  0xbe422426bc92e66aU, 0x3e30cce6bea36032U, 0x3e69c81c3e8dec44U, 0xbd9ed3c0bd94c5feU,
  0x3d9849b23c4123c0U, 0x3ec3703cbe457eaaU, 0xbdd78a54bd16a25dU, 0xbec115ca3d05c2f8U,
  0xbe41b209be260135U, 0x3dacd78abd340aa8U, 0xbe4986fabebee207U, 0xbe0c0b373db07a79U,
  0x3b89eafabe35f333U, 0xbe70a977be7299b2U, 0x3e8e563cbd8c9fa4U, 0x3e777cdebe745d78U,
  0x3e96b1cbbe16ef1bU, 0x3e307492beb8022dU, 0x3e922dcfbd0c9ea0U, 0x3e4331a6bdd06e74U,
  0x3e14bdda3df72e3cU, 0xbe3b96203e925e33U, 0x3e2925b2be80a6cdU, 0xbe8d02e6bded319dU,
  0xbe80c9993e0dff40U, 0xbd995960be556930U, 0xbee8213c3ebce7cfU, 0xbe3c1ed43d77eefeU,
  0x3ea25a2c3dafd521U, 0x3d7b01dfbf2f4dcaU, 0xbe935a71be927fd1U, 0x3e8271d33e92186dU,
  0xbe820a5ebedf6e0dU, 0x3e281f9ebe773454U, 0x3e8942ffbe004de3U, 0x3e6ac4963e121866U,
  0x3d0fec9fbeb35d59U, 0x3e98d5d7beab5f97U, 0xbc886a10be94ca73U, 0x3d5df4533d7320bcU,
  0xbea8c47d3d877790U, 0xbd5b9bd8bc8ad8d0U, 0xbc742860be45ae27U, 0xbd73c4d0be6a3878U,
  0xbe461c5fbdcaf6d4U, 0xbe812672bdad762cU, 0x3ea1c6c73e8669f3U, 0x3dd1ddc0be8d2b77U,
  0x3e773d66be92efe7U, 0xbe4969fcbd3a0760U, 0xbc23cd403db8fec8U, 0xbe8fa09a3d971580U,
  0x3eab1d21bcd79770U, 0xbe1df71b3ea95b71U, 0xbdb9d760bdf17422U, 0x3d872294bd23d350U,
  0x3e0f21ce3f15ac16U, 0xbe9ba449be5ca11fU, 0xbe9831393e3b49daU, 0xbedc17ba3e944b18U,
  0x3eb68c613eae7bbcU, 0x3d3ed0e1beb4a49fU, 0xbea5f4e33e759fd2U, 0x3e477d083e9b3cd9U,
  0xbe794978be8ebc8dU, 0x3e9c2e25be891d0bU, 0xbe536b243d6bf547U, 0x3d608888bdfe7527U,
  0xbe9aaecfbc90ac50U, 0xbe132ad3bd3f1f30U, 0x3e25cb923e624eacU, 0xbe1374663d543cbaU,
  0xbe47f382be861848U, 0x3e3a30cb3dc37876U, 0xbe24f9803e58b678U, 0x3e87f18fbeac46e9U,
  0xbeb0266ebe94a687U, 0x3e06ec19be1f21aeU, 0xbe7ec4813e6f1fbeU, 0xbe03afd53e9f0f93U,
  0x3eaec4d33ea8b6eaU, 0xbde59a95bdb3ca99U, 0xbe2bfb1fbe6298d9U, 0x3e20a062be1953b2U,
  0xbe5eaca63d7a57e8U, 0x3e7a200abaf44900U, 0xbe1963ea3dede8e3U, 0x3d470b953e986a93U,
  0xbce7fc333eee4cf7U, 0x3d29e2323d22040fU, 0x3de18adebeb40134U, 0x3e5810a03e62c807U,
  0x3eb69a4fbdf9a9f1U, 0xbe1ca37abdfb5486U, 0x3d60a20abe922e00U, 0x3da3a92a3d32fc00U,
  0x3e51b4debe52a3d2U, 0x3eb94ce33f02157aU, 0x3da426a03d531663U, 0xbda67394bd1e393bU,
  0x3ea5f7993e0818f6U, 0x3ca905f43e760c8aU, 0xbe841d153e30bc40U, 0x3d495eb93de13ba5U,
};

STAI_ALIGNED(8)
const uint64_t g_network_gemm_3_bias_array[8] = {
  0x3ddf4822U, 0xbdb5a3d6U, 0xbddb95b23e18ad44U, 0xbdac8a193e094981U,
  0xbe3a5c933de78ce2U, 0x3de9304dbd9363a2U, 0x3e2b5d3400000000U, 0x3e14e530bd27256bU,
};

STAI_ALIGNED(8)
const uint64_t g_network_gemm_4_weights_array[8] = {
  0x3e869b743f078dd6U, 0xbeafa464be9ca335U, 0x3eb29a33bf14ff4dU, 0x3e5a3d8fbec27a22U,
  0x3ec30074bed733c1U, 0x3f15bd29bd565546U, 0x3f521ce43e8d93baU, 0xbddbdd0a3e743be8U,
};

STAI_ALIGNED(8)
const uint64_t g_network_gemm_4_bias_array[1] = {
  0xbe120d58U,
};


