/**
  ******************************************************************************
  * @file    network_data_params.c
  * @author  AST Embedded Analytics Research Platform
  * @date    2026-04-30T18:19:50+0100
  * @brief   AI Tool Automatic Code Generator for Embedded NN computing
  ******************************************************************************
  * Copyright (c) 2026 STMicroelectronics.
  * All rights reserved.
  *
  * This software is licensed under terms that can be found in the LICENSE file
  * in the root directory of this software component.
  * If no LICENSE file comes with this software, it is provided AS-IS.
  ******************************************************************************
  */

#include "network_data_params.h"


/**  Activations Section  ****************************************************/
ai_handle g_network_activations_table[1 + 2] = {
  AI_HANDLE_PTR(AI_MAGIC_MARKER),
  AI_HANDLE_PTR(NULL),
  AI_HANDLE_PTR(AI_MAGIC_MARKER),
};




/**  Weights Section  ********************************************************/
AI_ALIGNED(32)
const ai_u64 s_network_weights_array_u64[1633] = {
  0x3e32353bbe8065f7U, 0xbda049d83dcaaa59U, 0xbcb65ae0be87c293U, 0xbe92dfabbea427c6U,
  0xbcc95137be896180U, 0x3e4201b73de48f17U, 0xbbec645ebe90270aU, 0xbc842e50bddcd00eU,
  0xbe278f4fbdf36ef4U, 0x3d617db0bdd8fa6cU, 0xbc84100a3db5a2e6U, 0xbd4ef0b0be392f88U,
  0xbe18d2d0bd85ade8U, 0xbd9218dcbe9c5e00U, 0x3ea26a72beaabadbU, 0xbcb66480be484939U,
  0xbea342d0be97009aU, 0xbe3eadef3deff785U, 0xbe8a772e3acd05adU, 0x3e8771b2be3f7ee8U,
  0x3e77cbdebd630078U, 0xbe9e3c7ebc53a2bbU, 0x3e5f2a593dcdd254U, 0xbe20dc7ebe459073U,
  0xbea52d4100000000U, 0xbe8ac6edU, 0x0U, 0x0U,
  0xb924073100000000U, 0xbeabc07ebe63266dU, 0xbbd71e9200000000U, 0x0U,
  0x0U, 0xbe9c542500000000U, 0x3d9d8c12be798cf4U, 0x0U,
  0x0U, 0x0U, 0xbe42760600000000U, 0x0U,
  0x0U, 0xbb776c70U, 0xbc8cafc4U, 0xbe6a571800000000U,
  0x3e5402d300000000U, 0x3e60b427U, 0xbc123e1fbd05d49eU, 0x0U,
  0x3e244a7d3d0e4090U, 0x3e2099043ea3c3c8U, 0x3d0fc2183e04fd34U, 0xbe28eb2ebd3690f8U,
  0xbd50aed4bdfdb7feU, 0xbd4ebb373dd81b3aU, 0xbe11c135be762e0aU, 0x3d11e798bd6109ccU,
  0x3d2a7c703e51f7a6U, 0xbd3aa952bdde670cU, 0xbe38f722bd29d7deU, 0xbe393e5a3cb244f0U,
  0xbdfe727e3e841e7cU, 0x3ce2c6103e13b72eU, 0x3e337c8ebdb91246U, 0xbe7a86693dd68474U,
  0x3e0a35bcbd3073c8U, 0x3d73a8083d92f28dU, 0xbe826caabcc9d87bU, 0x3e3901e0be81e415U,
  0x3dc09f003e62aa00U, 0x3e1529b6be2e991eU, 0xbe443fac3e0b6381U, 0x3e224738be1553d1U,
  0x3d3ebb48be8a81e4U, 0x3c60e5003e2d4914U, 0xbe2bf7383e852bceU, 0xbe02ab863e0e71dcU,
  0xbdc4f1c2bd47f0acU, 0xbd56cd90bc8de800U, 0x3e1749243cb34710U, 0x3e7b13dc3e89ad86U,
  0x3e6f3ef0be7448f2U, 0x3de57e543e35246cU, 0xbc7f3ae0be28537aU, 0xbe5c7aeabe89a725U,
  0x3d6609a0be839028U, 0xbe2e476ebdfe275aU, 0xbe85c31cbdee49d0U, 0x3e8274ec3e862384U,
  0x3e483f5cbdbdcde0U, 0xbdef8f06be0a2320U, 0xbe2dadc63d0056c8U, 0xbdb2cbfabdec152eU,
  0xbe1bb1e43e73f808U, 0x3cd9df40bdc57514U, 0x3d2897283e079a86U, 0xbce770a83e4ff180U,
  0x3ea8838ebe1068f7U, 0x3df87c04bd396528U, 0x3e6d9bc8be383cd6U, 0xbdc00b4ebdcc608cU,
  0xbe3edbc2be547396U, 0xbcba9e283e6e0418U, 0x3e3d1bdc3dde23e0U, 0xbcb4f310be5ce63cU,
  0xbe8351563d2c5828U, 0xba1713623cbfb000U, 0x3e3eed1b3e1247f4U, 0x3e73ec84bd83a994U,
  0x3c9689a0bdc800ccU, 0x3e367734bd0e68e4U, 0x3e797ad13dbe40e4U, 0x3dde2e04be52444bU,
  0x3d2c9ef0bdd242d2U, 0xbdd33cf6be0ee7e4U, 0x3d55f3f8bcccf9a6U, 0x3dc6aadc3dd41ffcU,
  0xbe483b423c1b79a0U, 0xbe15830bbe3b302eU, 0x3e91f13f3e667420U, 0xbe4598b23e48fc0cU,
  0x3e10df60be04a451U, 0xbcc5c848bd805e30U, 0xbe8a069c3c8f6110U, 0x3dd25e24bbf931c0U,
  0x3de476e8bdcf3d18U, 0xbd3dc7f43d8e279cU, 0xbe34766e3d485398U, 0x3e502a7a3e1eba68U,
  0x3dad2d1c3d8a6d2cU, 0xbe5c76e0bd3dfe40U, 0xbe7c32453e2eb73cU, 0xbe21324f3e220e42U,
  0xbe13bcacbcfc97b8U, 0xbe07acc83da5f7f0U, 0xbe7aa637bd8fb3f6U, 0xbe89267b3e224630U,
  0x3b3fe9803e50084cU, 0xbc0e7800be049d79U, 0xbe3b9f0bbe6912b5U, 0xbd1300fcbe16c5faU,
  0x3dcec930be3d15d6U, 0x3c9b81b0be1f227eU, 0x3e4674d8bda3aaeeU, 0xbe67b41dbdf3f256U,
  0xbe56f2da3e877bdeU, 0x3c238020be600d82U, 0xbdc7d4d03dfde78cU, 0xbd74d0103da8327cU,
  0xbd906cb1be869838U, 0x3cbde6ad3e0c8f61U, 0xbe31ef92be6526ecU, 0x3c632e00bdf70a46U,
  0x3d9ac6883d9f5610U, 0xbcdcffa0be0c3b1bU, 0xbd131c623d043b58U, 0x3e057f823e7c7354U,
  0x3e81d43ebd83cb32U, 0x3e51232abe88cd9bU, 0xbf888d543bf3a500U, 0xbd17d9503e6a7c8cU,
  0x3d043b80be4914b2U, 0xbe3dcf54bf322cb8U, 0xbdcd6130be9cc01eU, 0xbdc2ab123e1fe22eU,
  0xbc4231e23d89c758U, 0xbe33ced83e008268U, 0xbf3a3a09bf6d514aU, 0xbc2a1420be7523d4U,
  0xbe82e8adbaccc500U, 0xbde74794be407100U, 0xbdc193d2bbf057c0U, 0x3ddbd1903e7c8db8U,
  0xbe7c454ebd815e64U, 0x3c4d39c73d176db8U, 0x3e37a2a0be02dab6U, 0xbd9a711e3e55cd6cU,
  0x3df58368bdb3964aU, 0xbe4d9b373da698c4U, 0x3e3a19413dce3d4dU, 0x3e6f9fe8bcc1ce60U,
  0xbcd69b703e7b1ad4U, 0x3e1a264cbd91267eU, 0x3d69874ebe333d87U, 0x3e829fa8be247b2aU,
  0x3d5d1fe03e7c439cU, 0x3bbd45c03c41ed7eU, 0x3e0cee5abca8fbe9U, 0x3c826f553deb1878U,
  0xbdbcf5273d71aab0U, 0xbe28631a3dce6b93U, 0xbe13e8baba7068c5U, 0x3e880bd23c083940U,
  0x3e1a4a1ebe879887U, 0x3e14a404bec4ead7U, 0xbe70f54abe13926eU, 0x3e0e1df6bd88c348U,
  0x3de60cabbd230b44U, 0x3d913aa8bea0850cU, 0xbe2df5183e2af346U, 0x3d8fbf88be864d4dU,
  0x3e329a263e6c4788U, 0xbdcfe6573e223c6aU, 0xbd751e2ebeeb9450U, 0x3da4ad58bdb75810U,
  0x3e6ffe4cbe384259U, 0x3e48087c3e859584U, 0x3e1883673e6463b0U, 0xbe7ade9dbe1e2254U,
  0xbe048491bd990492U, 0xbdf7f5eebdb7022fU, 0xbe533352bc33c783U, 0xbe7ce1313d234310U,
  0x3d1458c3be155ba8U, 0xbdea0ce2bd529f69U, 0xbca434223e4a6025U, 0xbe8af72ebe67b580U,
  0x3e859bf6be262cacU, 0xbe269ee8be5a6bcdU, 0xbcfa0fa0bd993454U, 0x3e17f95a3db9ed70U,
  0xbc8b96603d219e28U, 0xbbe3b8c0be31d660U, 0xbd1b34343dd08344U, 0x3dd13338bdf03b7eU,
  0xbe382fc7bda697f0U, 0xbc8f8de03d050cc0U, 0xbda0d494bdde2074U, 0x3e184532be867c72U,
  0x3d00a9f8be87e794U, 0xbdc8b2b4be1ac48aU, 0xbe0d0d92be77e808U, 0xbe30a2a8bd153d4cU,
  0x3e85272a3b93fc40U, 0x3dc5ff9cbe4508f8U, 0x3d05b490be14694fU, 0x3e75eefc3d2cba88U,
  0xbd01dec43da425e4U, 0xbe49ffc63cd959e0U, 0xbe7420e0be816584U, 0x3e28d2883dea2554U,
  0x3e9a85b53e2c9980U, 0xbdb24c9a3e11c07cU, 0xbe576bcabe7b02a4U, 0x3db3841c3dc204f4U,
  0xbe12ef233e73cd44U, 0x3eba282f3d5fcc71U, 0xbe7a9ee43d8bbea4U, 0x3e852f3c3e7f13dcU,
  0xbe0f5f073e0b15f4U, 0x3e8ce4433d88a43cU, 0xbdf7d6fa3ea91441U, 0xbe10a116be5f9b9aU,
  0xbe6a35b83db18d24U, 0x3c20c8003e2475f2U, 0x3e6dd116bcad08f0U, 0x3e7fb360be665188U,
  0xbe6948e6bd67d008U, 0x3daa42883ce545e7U, 0x3c63ebc03e72894dU, 0x3e1fd54f3e1255eeU,
  0xbe6752b3bbd75000U, 0x3e19830cbe46a945U, 0x3e28fbe5be2f07b0U, 0xbe24a93ebe85a3feU,
  0xbc9dfc4e3e852ce4U, 0x3e87dddc3eba3af5U, 0xbd967e763d067468U, 0x3d3dee08bd3d8670U,
  0x3e9a73643be09fc0U, 0x3ea2965e3a9c4dd0U, 0x3e336734bda0ea98U, 0xbe56961c3c1e01e0U,
  0xbe0e1a5d3e7daba0U, 0x3d457a46bdabff1cU, 0x3d317d733cf942d3U, 0x3e02ffb0be88a449U,
  0xbce238e8bc09ad60U, 0x3db43e2c3d4db170U, 0x3eb01b05be897b35U, 0x3d96b6783ca0dcd0U,
  0xbe297c8c3e390040U, 0xbe1a41ce3eb705f9U, 0xbe4b17b63dd7e2a2U, 0xbd5d9df83db4daa4U,
  0xbe34a0723dd3e0a0U, 0x3e32d5ec3e842f6bU, 0x3cb2b33a3e08674fU, 0xbe0756543e4d59e2U,
  0x3e03a035bd82eaf0U, 0x3e293a163e1220a2U, 0xbd99ec04bdaff026U, 0x3e582cba3d2ef8d0U,
  0xbe8dae79be3049f6U, 0xbcab6b323bcb11c1U, 0x3d112306bdd27a2cU, 0xbd583b84be8ba22aU,
  0x3e3aa3503baf9ec0U, 0x3e1d1f76bcc090d0U, 0xbe60a3c33eb3e887U, 0x3e1ac4143e00b548U,
  0x3ce362c0be0d93c7U, 0xbe8315e03ca60d50U, 0xbe804e5cbe563afcU, 0x3e8b2972bd27e32cU,
  0x3e41afc4bd95ca4cU, 0x3cc1ea503c61677dU, 0x3e5f96e43e7726d4U, 0x3db360803c2c3820U,
  0x3e06039dbe4fbbf2U, 0xbe894562bea05429U, 0x3c9e30913e518e9bU, 0x3e4166083e8ae6b4U,
  0x3e3d0ec1be5b9f31U, 0x3e8523dabe4d8191U, 0xbe4a4fffbe17afa6U, 0x3e49c216bdf035c6U,
  0xbe45f0f0be181af8U, 0xbd99cc8abe517d97U, 0x3d885a703e6e2e5cU, 0x3e2c5d823e79f48cU,
  0xbd45ff68bdf1c4feU, 0x3e2c138e3e404d52U, 0x3dce04443d49780fU, 0xbe5e0292bdd2c3d0U,
  0x3b207b80bdc3b19eU, 0x3e35b95a3e0ef2d2U, 0x3e47e7d63e3ed2e6U, 0x3e1b7f363da21ffcU,
  0x3a9a3100bd36589cU, 0x3e48dd54be55fac0U, 0x3e59d8ecbe972cebU, 0x3e527ead3e4a4460U,
  0x3e35b5f43e4ac286U, 0xbe409a01be6c233bU, 0x3e29a8073e1c82c0U, 0x3e88b3883cc4db20U,
  0x3e002218be4540f1U, 0xbc8729d0bd7dc204U, 0x3d11d4e8be058bdeU, 0x3e8686883da3ac08U,
  0xbe1fc6a5bd873a42U, 0x3e66d846bbe92a40U, 0xbe603da4be8c23afU, 0x3e66e3be3e643016U,
  0xbdd7c4963e7fbeccU, 0xbd68d9443e855b86U, 0x3b2def3c3d389550U, 0xbe4b52e63e7e9e34U,
  0x3d2a94383e46ce5aU, 0x3e8a4d183c458bc0U, 0xbe8b9bc5bdcc1fdaU, 0xbe564d24be2d1b2cU,
  0x3d474b403e50ad82U, 0x3d7a87c8bdcdb51cU, 0xbcd63e583d9a01e4U, 0x3d62acb0be56bbfdU,
  0xbdfe4b62be770f6dU, 0xbc8e64303e32256eU, 0xbd561b58bdf6eff2U, 0x3b066380be2621c9U,
  0xbd6b85c83df79614U, 0x3e162dea3e595162U, 0x3d8612383e4e3f6eU, 0xbe1e3860be036590U,
  0x3e3e68e8be73c80aU, 0x3e748fef3dd622a4U, 0x3e551946be56f6bcU, 0xbe3068723e30a2d8U,
  0xbe809ffcbe0a1cc7U, 0x3e784c00be0b151eU, 0xbe1c3fb83e12bb2cU, 0xbe78a4133e86fd86U,
  0xbc3427a03c8bfae0U, 0x3d83ed18bdecb308U, 0xbe953d763e403ee4U, 0xbe038a31bdc32bf0U,
  0xbd73c0303d9049a0U, 0xbc853b203d3ded8eU, 0x3e88b8aabd8bc77bU, 0xbe3d9aee3e27be10U,
  0x3d9eba813dc11128U, 0x3e522d26bdb55114U, 0x3ce7b51fbdf9d20bU, 0x3e808e50bdb1c6b6U,
  0xbe8adf453d74bd90U, 0x3dcfee503c6759e5U, 0x3e0214823d2480c0U, 0x3e53ec623c8050b0U,
  0x3cb44958bd2f6740U, 0xbe77c0fa3e77be4bU, 0x3cac8e01be0ef0c3U, 0x3e810992bdf60c2aU,
  0xbd2e0a5c3d3dbd10U, 0x3d7e03133dbc83b4U, 0x3e3cf4cdbe668f41U, 0x3e1ea9f63e43fb90U,
  0xbe0d56a43e871db6U, 0x3e18a89abe872112U, 0xbe0369d6bdfcd034U, 0xbe06b8733e35797cU,
  0x3d9d9620bcdfde48U, 0x3e167fd0be3b96eeU, 0x3df767ccbe22ab3cU, 0x3e8116d03dbdee78U,
  0xbe206b583e6e6dc4U, 0x3d7bcbd0be1b1614U, 0x3e78794cbd33e777U, 0xbe190d6cbe85398eU,
  0x3db1d3263e402a2eU, 0xbe2535f03d71a8a1U, 0x3db08144be803086U, 0x3de9d7583e594918U,
  0x3d02206f3da58d60U, 0xbe3be0203e3f8228U, 0x3dfe22efbe880f52U, 0x3e0161ac3d961c1cU,
  0xbd05a8ec3e291cb6U, 0x3ec5d57ebe00de57U, 0xbe6156b7be108459U, 0xbe8b6ce8bd8b649aU,
  0x3db6a82cbe6a9bd1U, 0x3e76fe803b393b80U, 0xbc2b15b23d912e80U, 0xbe89c781be41426aU,
  0xbd84c49ebe2c546bU, 0xbe16b60f3e41b041U, 0x3e862a3c3e2a94b8U, 0x3e287742be6c368fU,
  0x3e7f71953e1a6b6eU, 0xbe00caf7be2b4a0eU, 0x3c8bc37e3e3af778U, 0x3e15aeb0be5cd68aU,
  0xbe47f3ac3e8afdbaU, 0xbd881a72bbb8a340U, 0x3e658a023e3ee486U, 0x3da6bec4bdb9f65eU,
  0xbe39007f3cf634a0U, 0xbbb623803e6c035cU, 0xbc9aee80be63aa1eU, 0x3c343d00be469b7eU,
  0x3c8855d03de72e00U, 0xbdf91f623e0e23eaU, 0xbdc2aaa2bc1f4b60U, 0x3e8019823e5b1650U,
  0xbd564a40bdaaf758U, 0xbe4b633ebe6c3902U, 0xbe95aaf63da16624U, 0x3e718ea83e082502U,
  0x3d5c81f03e7ac178U, 0x3e17d7bcbe6f7755U, 0xbe86d86ebe95b9e2U, 0x3e053f1e3e2c6686U,
  0x3e7c3231bbab9e80U, 0x3e4eefc8be8bc394U, 0xbcbbe1953d04e28dU, 0x3db7095cbdc3ba0aU,
  0x3ce186e8bdaf24c6U, 0x3e53bf743e8551ffU, 0xbbf4ccc03e58a492U, 0xbe83113abe1af310U,
  0xbbfe9a3bbe0bad81U, 0x3e37dc03be241e04U, 0x3dd541553d218108U, 0x3e179f0cbe8b8662U,
  0x3e47547ebd9cc3f0U, 0x3e9e85583e233fc4U, 0x3e304df13ddf4651U, 0xbe84c9303d8958fcU,
  0xbe19cc523e1a8ceaU, 0x3da403a03e5b7024U, 0x3e80e11ebe6c1010U, 0xbc903040bdc2f10eU,
  0x3da83138be3867bbU, 0xbdd93036bdc52a52U, 0x3e3cfb1a3d0f9364U, 0x3e4d03e0be205258U,
  0x3e8e7206bd9866e6U, 0x3dc462403cb572e1U, 0x3d32db943dc1bc68U, 0xbd7dedd83e192910U,
  0x3c49a667bcf22fe0U, 0xbd1f38a0be6a84a4U, 0xbe8175b33e13ac6aU, 0x3e7fd1cc3db74154U,
  0x3de0170b3dfaebc8U, 0xbe16dafcbdb9a631U, 0x3ddec327bdde8886U, 0xbd3ef814bdfaac08U,
  0x3cec8090be4839adU, 0xbed63a183e825e50U, 0xbccdd91cbeb460acU, 0xbdaf1c4a3dd7037cU,
  0xbe7507d83e13a1b2U, 0x3dfe0918be1fedd6U, 0xbe3970333e821b7eU, 0xbe2666443d671c50U,
  0x3da97424bd508de0U, 0xbe42faeb3e282870U, 0x3e35187e3b80ccbaU, 0x3e1848f23e56815eU,
  0x3e190322be83f255U, 0x3b966e403defe754U, 0xbda5e7f2bd8a9563U, 0xbd5d8720be191a58U,
  0x3e23c5ae3e318b68U, 0x3d8107203e0fa084U, 0x3e7e2ba03e47064eU, 0xbe113fb4bd33f7d4U,
  0xbd645e10bdc96128U, 0xbe8bb79cbe678d65U, 0xbd9ffe1cbd141e90U, 0xbe04a62f3c413fa0U,
  0x3e66a630bd54373cU, 0x3ced9e30bc123760U, 0x3d1aef58bdabfac4U, 0x3e2f3bd4be16294fU,
  0xbdd21c583c60c320U, 0xbe79e29c3d2a5458U, 0x3ce1aaa03db0b434U, 0xbd5df5c43d9b2e24U,
  0xbd8648ae3dbf6b2cU, 0x3e1a18f8be723634U, 0x3e1953d6be359320U, 0xbe43c56cbe883cc4U,
  0xbc0e6260be3fde5cU, 0x3d860600bdd76e42U, 0xbe3fb1c5bc8024c0U, 0x3d90d20cbe009746U,
  0xbd06149cbc9b7610U, 0xbdb0cc7abc552e40U, 0x3d958f58be16b2b8U, 0x3d3c06303c5113c0U,
  0xbd4049d03da40fe0U, 0x3caaf6c0be60a94dU, 0x3e0a490abe1302bdU, 0xbe43b70bbd39c124U,
  0x3e157702be5236e8U, 0x3e1224583dfff01cU, 0xbe10f283be05f844U, 0x3de24470be863ec4U,
  0xbdffde24bc610920U, 0xbe07136c3e09cf1eU, 0x3df378a43e83ea70U, 0x3e26470c3db2cdf8U,
  0x3d9297cc3e2c3cd4U, 0xbdc504dc3e16cf7eU, 0xbe0f1a6dbe076fe7U, 0xbe0b03d03e377e74U,
  0xbe133becbd89fa26U, 0x3d38c5e0be2bb9f6U, 0x3d7fa7a8be6009eeU, 0xbdd1d5723e4fa970U,
  0xbd7279203dba9bfcU, 0x3e3bbad2be3efef0U, 0x3dccd1083e440fb0U, 0xbd4c27583e1eef66U,
  0x3da192d03e35e612U, 0xbd83c8263da92b4cU, 0xbe62ba5abd9f0436U, 0xbe69a0963cd7c1e0U,
  0xbd881fd2be40bf2eU, 0xbd04bcec3d8011d0U, 0x3e3501dcbdf9dfc4U, 0xbe57fb16bc3c5420U,
  0x37c54000bd55a4f8U, 0x3e3a55c23b84cd40U, 0x3e47ae063e810d94U, 0x3e6958a8bcefd770U,
  0x3e653b083e255824U, 0x3e036a64be8b97e5U, 0x3e044bd83e48d404U, 0xbd59f4a43d976784U,
  0xbe15e54a3e112d94U, 0x3e3b15e0be81f3a4U, 0xbe658b6dbdec8592U, 0x3e55fb3abd893c54U,
  0xbd8d83113d8fbac4U, 0xbdcc78dabc5a2bbfU, 0xbe1511d13e27d6f4U, 0xbe4e4726bd99c2deU,
  0xbdaf57803e4d601cU, 0x3df449783e4e2741U, 0x3dd66e223e8bb70aU, 0x3deb3a9cbd607e24U,
  0x3e88c8443e52b23aU, 0xbdd5111dbd02abf4U, 0xbd3efe233e123545U, 0xbe7c54e13e6bc0b0U,
  0x3df150543dcaa4ccU, 0x3dbc539cbe43a2d0U, 0x3e6812663c092620U, 0xbe77d3a63e003008U,
  0xbe52193abe61964bU, 0x3d1811f03dbeed3cU, 0xbe3d81583de6ea23U, 0x3e223483be5d05d4U,
  0x3b7221d93e560c72U, 0xbe42319c3cf913d3U, 0xbdcf398abe164805U, 0xbd0f18fc3e06934aU,
  0xbdc29df0be6badfdU, 0x3e5c0be2bdb35af8U, 0x3dda5d04bdaf013eU, 0x3e5a0f60be39e6cbU,
  0xbe4ca24c3e8a4862U, 0xbb876e40be3c602fU, 0xbe4e33cebe0ac930U, 0xbe3dd7de3e327208U,
  0xbc3f4a40be0e1d04U, 0x3e40bc163e1fbe4eU, 0xbdc00e30bd6bb140U, 0x3e464c0e3e3d5b18U,
  0x3dfc3db03d262338U, 0xbe522729be057cc1U, 0xbe8766553e6369a8U, 0xbe50f1143e113ec4U,
  0x3da0c3783e371b9aU, 0xbd1f5ffcbe53c76fU, 0xbde0fe22be44b02cU, 0x3debef48bdc4effcU,
  0xbe1c5f143d5c1258U, 0xbddecb123e5f394bU, 0x3e856e7ebdec8bf8U, 0x3e0370e43e666154U,
  0xbe71e962be7b3cdfU, 0xbdac72083e460180U, 0x3e83ed7c3dcd73b8U, 0xbe3be95c3e82d912U,
  0x3e3406e63da6777cU, 0x3e4d6a0abe18fde6U, 0x3e17e978bbf76ac0U, 0xbe30a619be2a4adaU,
  0x3e4ef1ccbdcd5e96U, 0xbe0e659c3e071d74U, 0xbe3161d03da6c27cU, 0x3d81385c3dea1facU,
  0xbe4f2428bd1fd70cU, 0x3e706598bdf98fbcU, 0xbe00fd2bbe3d1560U, 0xbe270d46be69ea1eU,
  0xbc5fd3c0bd4c7784U, 0x3e20e26e3d30d530U, 0xbe193c07be4cbe89U, 0xbe8a8aa83e13f516U,
  0x3db714ec3e6a24a4U, 0xbe4b820ebe1f9bc8U, 0xbdbd10923d7503e0U, 0xbdbb4cccbe64e8ecU,
  0x3da693fabe8adcd7U, 0x3e706e4cbe03d269U, 0xbdc9064ebe8a96aeU, 0x3e5e805cbe23cb28U,
  0xbe65ae25bdab5502U, 0xbe891335bbc5d494U, 0x3e720bd1bde88e5eU, 0xbded845c3e3860ccU,
  0xbcbe0360bd2a9400U, 0xbec640fd3e125d9aU, 0x3e164c52be9ba7f3U, 0xbdffb2c63e361ff2U,
  0x3e1271c8be5880c8U, 0xbe2f31903df0310cU, 0xbd664e0ebe77683aU, 0xbd463e883e142224U,
  0xbb23c7003e365f46U, 0x3e5e2442ba714f78U, 0x3e8c15243d84d3b2U, 0xbe7a38573e3dd1ccU,
  0x3e82a1083cd0c6c0U, 0xbded9d863e4102ccU, 0x3dac06eabe2ea928U, 0xbd8db8bc3c170ca0U,
  0x3dc9a5ec3da2beecU, 0xbe5fb0b8bcf61848U, 0x3dcbf764bd98b504U, 0xbd7997103e1c513eU,
  0x3e6556ea3dc90160U, 0xbe87e766be53ca34U, 0xbded345c3e14d360U, 0x3b78e480be850996U,
  0x3c1ac9003d68e1f8U, 0xbd54339c3d2d2940U, 0xbce7cda03e6cc9bcU, 0x3e6d79203e572510U,
  0xbe8953843df9b914U, 0x3d3936e8be6eadb0U, 0xbd3fc4b83e19d2caU, 0x3e5d21f0bd17d1c8U,
  0x3e6c998c3e2241e4U, 0x3bafa040be1267bbU, 0xbe1e2d40be5a717cU, 0xbd79d698bb024b00U,
  0xbe6b41f73c4065a0U, 0x3e31cca2bcec86e0U, 0xbe509d9fbcaed600U, 0xbe59faa9bccab108U,
  0xbeb2cd713e2db132U, 0x3dd6ed20be8d4290U, 0x3e165d0ebddd62e8U, 0xbddbf18abe203748U,
  0x3d2c9d4a3d1ec938U, 0xbe9b6117bda56c6aU, 0x3e0c5c0ebe845731U, 0xbd7c4db43dc75ae0U,
  0x3e1dfa0abcb35cd0U, 0xbf016cd83bff4940U, 0xbe129a5ebe8fc100U, 0xbd3c6084bcda0230U,
  0xbc5f91c03e638d34U, 0xbd806a7abb8950c0U, 0xbc8e099d3e4b53d2U, 0x3de69e183ca4e8b0U,
  0xbe2ca8f4be675cd2U, 0xbe4e736a3e2185b8U, 0xbd9ec1a2bcabbc70U, 0xbd96cdaa3c60a600U,
  0x3e2f96c3be8b68b7U, 0xbe1328b43dc85d26U, 0x3dcd1fd03e0e991eU, 0xbd1deeb03e757e9cU,
  0xbd18381f3dbfafa8U, 0xbe43828c3e64d86dU, 0xbd5649043e81aff6U, 0xbc56b820bd290cccU,
  0xbe5f63dbbcb0c490U, 0xbe7ccf8a3e36e8d2U, 0x3d7c9ca43dc7afbcU, 0xbcaddc603e3b5d92U,
  0x3e80f69a3e0c3d5aU, 0x3e3349843d5b05f0U, 0x3d9933ea3e831f0bU, 0xbe5426aabe353ceaU,
  0x3ca5e2703e066350U, 0xbcf89e10be82dba5U, 0x3ce5711d3e2e8098U, 0x3e83024abd6f7610U,
  0x3e3cbf403e7f0888U, 0x3dfdc8f8bd053a65U, 0xbdc24744bd01fefaU, 0x3e49443fbe44a6b4U,
  0xbe529ad3bd892054U, 0x3b1c05003d0fd825U, 0x3c69b2593e6765dcU, 0xbdfe3acc3e6dcd20U,
  0xbe41dd1dbe1e49c4U, 0x3e456074be6edd99U, 0x3e7ef3f4bd20e8b4U, 0x3e1237a2be4149caU,
  0xbe2401e73d16cd30U, 0xbea160f1be80e0a3U, 0xbbcff1f0be85af0bU, 0x3d8838343d914a18U,
  0x3e0f10283e846e02U, 0xbe525350be1443abU, 0xbd4d69abbc1b1407U, 0xbde193503dad9fc0U,
  0xbbb83900be21cca2U, 0xbdbbf81abdc3c848U, 0xbddaf946bdac6360U, 0x3e4a3fca3d7ae9e8U,
  0x3d923c303e87f81cU, 0xbe837ad8bd4adc2aU, 0x3e7340a83e0301e8U, 0xbb71444e3e307592U,
  0x3dfd19f4be2eabdeU, 0xbe6b4549bc999c20U, 0x3e287df33e71bac9U, 0xbd95d5e63d5255c8U,
  0x3d8f90efbdfb9e92U, 0xbe4a3a12bdc4079fU, 0xbde1c4683d80846cU, 0x3dabea703df78484U,
  0x3cd7033a3dedc510U, 0xbed010e6bda1f250U, 0x3d266c78be03feb3U, 0x3e11e43e3e04feb6U,
  0xbe018948be5ba004U, 0xbe337334bc903d60U, 0x3e3588a3be228dcaU, 0xbe07e0943e8b92fcU,
  0x3e82e3e4be47466bU, 0x3e5ab4603e30edaeU, 0xbd24931e3d6d7918U, 0xbe7618103db1f1c0U,
  0xbc1900403e887478U, 0x3e442f08bdea2e4aU, 0xbe772ec8bde2ae06U, 0xbe82b378be493a68U,
  0xbd73d39dbe824fbdU, 0xbc5f32203e4de941U, 0xbebc520bbe32f434U, 0xbd92d108bd303b4cU,
  0xbd4a94b63e629608U, 0x3e403a04be36150bU, 0xbde2030e3e307344U, 0xbe3860c83e3518deU,
  0xbe7c7b2fbe44cb70U, 0xbe2891d13e3624c0U, 0x3e83bb5f3e4fc322U, 0xbe18c8903e880bbcU,
  0xbe7cd1b9be497c6cU, 0x3ebd69253e212038U, 0xbe30fcd93d088620U, 0x3cf5e160be350052U,
  0x3e1e3c2c3dbdce64U, 0xbd34b94c3db6b7c0U, 0x3e7b8023bdfbf1f6U, 0x3e5464f03e24ceeeU,
  0xbdc50f3c3daf8fecU, 0xbe65c695bdb36c52U, 0xbc0bfd00bda047a6U, 0xbd840f13bb5a2480U,
  0x3e3726c13e79cf6cU, 0xbe87e1873d0c47b6U, 0x3e5bfec9bcaf798fU, 0x3e859ff03d20d8a0U,
  0xbe617a7dU, 0xbe4921dfU, 0xbcb435143e1516bbU, 0x3e8e8631U,
  0xbe19eb1abe804521U, 0xbca4b244be9bd728U, 0xbcea69d1bcc25664U, 0xbe55cbf1bc22e76aU,
  0xbda433fbbc7a83a3U, 0x3e6fa7d7U, 0x0U, 0xbd01ca28bc13e479U,
  0x3e935e6500000000U, 0x3e8a5f2300000000U, 0x3e901346be6d89abU, 0xbe89a0313e6109f0U,
  0xbe0783833e4083eaU, 0x3e9710a1be60fac4U, 0xbe5f5e9abe58c882U, 0xbd97a81cbe87c131U,
  0x3e884190be4c598cU, 0xbdcbead43e8da119U, 0xbe91c77d3e500b6eU, 0xbe863da43e8c5054U,
  0x3e0295593e3553caU, 0x3e242970be518770U, 0x3e7e5bc23e125a54U, 0x3df9fab8be9c59b8U,
  0xbd37b8f83e94d1bbU, 0x3e642fa5be28d351U, 0x3e7549f43e46c1b4U, 0x3e907a17be3ddd41U,
  0x3e2c36743e778e28U, 0x3e6b55023e324aa3U, 0x3e1ab716bdf026c0U, 0xbc173900bd5a8e0aU,
  0xbe83611f3e4d840fU, 0x3e4eb3623e8005e2U, 0xbd800de83e9618c3U, 0x3ba684913e9c1027U,
  0xbd0fadcb3d9e15e4U, 0x3e7ac08e3e96bc53U, 0xbc76bf803e9bc093U, 0xbd8247243e82a275U,
  0xbe45a1f7bdf7943eU, 0xbd6dfd9ebdf565d6U, 0xbde2eecabe31024fU, 0x3ea269003deadde8U,
  0x3e4509323e4231a4U, 0xbe6303b23e1ae8beU, 0xbd6d43c43c8d91e0U, 0xbd6746ecbe010ac7U,
  0xbe22a3a0bd9b0950U, 0xbdcf3ea6bd8e4ec4U, 0x3df80a0cbc8eb9b0U, 0xbe87c9d73d923478U,
  0x3e63880abe7fbb53U, 0xbe98aa0fbe4619d1U, 0x3e3a5f7cbe10ffeaU, 0x3dada38cbe8748e6U,
  0x3e116c043e48333eU, 0x3981c0003e360f84U, 0xbe705a13be879aa6U, 0xbdbc3712be35a68dU,
  0xbda54322bebde227U, 0xbb2db680be842d69U, 0xbb39817dbed57246U, 0x3b3b8b00be48d870U,
  0xbf0a2fa8bd7f4cf9U, 0xbe3ea1bcbeaf4e0cU, 0xbe408ebebe52477aU, 0xbe964f9ebe6247c8U,
  0x3e4c20a33e176648U, 0xbdad738c3e417573U, 0xbe32f81e3e22fdf4U, 0xbdcaf3fa3d095ef2U,
  0x3e5586143e3b45a6U, 0x3e5a0e0b3e8d3ad5U, 0xbe789064bd0ec2e9U, 0xbea4e6b7beca0f5aU,
  0xbc24ab60be6a4eebU, 0x3e6abceebe599235U, 0xbe2a2919be194b6eU, 0x3e526bbabe6759b7U,
  0xbea8c924be6cf95aU, 0x3e84d551be1a043cU, 0xbe603922be2f306bU, 0xbe907fc1be8c751bU,
  0xbd563f9dbdaa7d02U, 0x3e86fd2dbd6c1e57U, 0x3e8341673dd88988U, 0xbe2840ecbe312a3bU,
  0xbe215a4cbe188b08U, 0x3e039d3e3d10f140U, 0x3e6ff7ab3e5e43edU, 0x3e3777a2be2819abU,
  0xbe3407bfbd66c814U, 0x3da49e70ba74bf66U, 0x3e315aea3e83109bU, 0xbe1b4be9bd02a235U,
  0xbe9e21093e95736dU, 0xbd0cce96bc81f692U, 0xbd0b0788bc804a6eU, 0x3e425579b9a8ce50U,
  0x3c6fa2143e458830U, 0x3e63fb2abdad2a55U, 0xbd8cbe1ebdb665b4U, 0x3de153f43dee61b5U,
  0xbe4b4d803c1b7d60U, 0x3de0329fbe4ed40aU, 0xbe9c8ad7bc32f550U, 0xbdbad66c3d6c3808U,
  0xbe94735e3e889869U, 0x3e16a098be0565e3U, 0xbe82d6dcbdd4a9e6U, 0xbc5b3f003dc2d5bcU,
  0xbe761c92bd191c48U, 0x3de4e2f8bd4a3870U, 0x3d86a358be94a0ddU, 0xbe89ec4c3d8e7d74U,
  0xbe21172cbe8b2d6bU, 0x3e57487ebe27d3baU, 0x3c8d18f0be5713faU, 0x3cd8cce0bb801ec0U,
  0xbe0e268abe91cfe2U, 0x3e9c74853d81abe8U, 0xbe382ba1bca57420U, 0xbe27e654be1eb0fbU,
  0xbe8cc48fbe6831b3U, 0x3dac2148be71028aU, 0x3e8456f9bd63a2d0U, 0x3d1c2910be362e07U,
  0xbcc39e4bbbeedbbdU, 0x3e910dedb987bc9bU, 0xbe74cdb8be850d7fU, 0x3dc0b0173dcde021U,
  0xbe351a89bd811c58U, 0x3e91552dbd0a1c1dU, 0xbe41edc33d9eec60U, 0xbd8ecca63e9b3760U,
  0xbdb739dfbe4ac0b0U, 0xbd9ef0c1bd2dca78U, 0xbe92a1a0be580a91U, 0x3dddd7fabda689deU,
  0xbde5d7c4bdb90305U, 0xbe47118fbe1cc818U, 0x3e121d6abf2a0fe0U, 0x3e9c1937bd8b7579U,
  0xbc35ba00be4c0a64U, 0x3e8b7de2be55802dU, 0xbe22c9193e06652eU, 0xbd781b56bda3a044U,
  0x3d9fad21be86fd3aU, 0xbe00aaecbe14ca74U, 0x3e5b571eba865200U, 0xbe71b8bcbcf61c24U,
  0x3e423c8bbde909faU, 0xbe002ceabe947b6fU, 0x3e626740be521099U, 0xbe99b7b8beb3f5c9U,
  0xbdb5d0e63d888293U, 0x3d733cf03e3e2216U, 0xbc5120acbe30f135U, 0x3e7574e6be4c3b8bU,
  0x3e891948be5bde05U, 0xbe0aab70bde39943U, 0xbe74e3e93dc84e64U, 0x397897953e68360fU,
  0x3dd2df38be4804e9U, 0xbe20eb0b3e6c3a56U, 0x3e98fa873e0cfd1eU, 0xbd81bf793e705da6U,
  0x3e9314b03e2053b6U, 0x3bcd8796bcac9570U, 0x3cbca1403b9c7acdU, 0xbd9371bbbe749e5cU,
  0xbe45cc063e718caaU, 0x3e922eb33dc3b4abU, 0x3dfc70cd3e8dc50cU, 0xbe0bb320be2706e2U,
  0xbe30f7723e4f1206U, 0xbdefc57dbd5a78a8U, 0x3d2cea903d6efab0U, 0xbd2e0970bdfee33cU,
  0xbe9085093d1a7260U, 0xbdd575d2be658e41U, 0x3db16fc4bdcaf5d0U, 0x3b1b0a803e286313U,
  0x3e87a3f8bde41374U, 0xbe881c063e94755dU, 0xbe7ca3123d90c874U, 0x3d06169c3d37849dU,
  0x3e9146d5bdf94792U, 0x3e8b592dbeac1f9fU, 0x3dd99692beffdb9cU, 0x3e1bc4c6bdf9c0e5U,
  0x3d7cb3f1bf41be1fU, 0x3c8fe9c33e1f7320U, 0x3e5715593c9ed0d0U, 0xbbf205e73c658633U,
  0xbc0a73553e6c5423U, 0xbe2547d13e47c40eU, 0xbe3e19fc3da141d4U, 0x3e008502be12e8e6U,
  0x3e5e4c67be3aa03aU, 0xbe527ad73d935814U, 0x3db5b601be1307a2U, 0xbedb8959bed29a19U,
  0x3e2e3750bcdd2d05U, 0xbe1bf76e3e4e1a84U, 0x3e6815723e769492U, 0xbe184610be6349fcU,
  0xbc364fe93dee9adeU, 0xbe066f7f3e2c2b60U, 0xbe5ffb363e0cc730U, 0x3e01d33fbe06ebfdU,
  0xbe8e555e3e6c7726U, 0xbe93decf3d3def6eU, 0xbe60fd84bd9da72cU, 0x3d9cd79c3e19b689U,
  0xbc990468be6d362aU, 0xbe8699bebd8f966cU, 0xbd23cf613e947f7dU, 0x3e0e2ea5bdde5500U,
  0xbe83546dbc9c0333U, 0x3e870c3fbe30daa7U, 0xbe79ec29bf113da2U, 0xbe0426893e09c58cU,
  0xbeb87fd4bdd33586U, 0x3d2fed68b8f145beU, 0xbe949ece3cbe210dU, 0xbe5818203e0e25b9U,
  0xbde88b883d3aa73eU, 0x3e5cf0be3e97abb2U, 0x3e8537c53e255432U, 0x3d8c7c0c3cb24c22U,
  0x3e9f4072bd3889c8U, 0x3ead854cbe2fcdc7U, 0x3e7320b03d9c1033U, 0xbeb6082dbe79211aU,
  0x3d7f1b503dba7e17U, 0x3e49f8723e9a2796U, 0x3e8093783c4c2aa5U, 0xbe3aab71be9cce53U,
  0x3d2d9c233f00fef5U, 0x3e3600a23e4fd6c0U, 0xbe8c3913bca01220U, 0x3e15662cbce9de58U,
  0x3e6d9fd13e918a29U, 0x3dbfca14be22c86dU, 0x3defb9e8be373a5aU, 0x3e5a678ebe0a2c0bU,
  0xbe0b8c8cbe61c4faU, 0xbeac0818be3fbc1aU, 0xbdfc559cbdeb9384U, 0xbe34adf73e066783U,
  0xbe806366be2b0b5eU, 0x3e96aa8fbc893780U, 0x3e9444e33e90e329U, 0x3e81f481bd8af438U,
  0x3b86f880be205eb6U, 0xbd9c2ed4be2f609aU, 0x3d19ba90be402052U, 0x3e5dbf8e3d351890U,
  0xbdec56e63e85ac9bU, 0x3e7f26c63e7d0682U, 0x3daadba8bda4232aU, 0x3db911ccbe93f115U,
  0xbe84da6c3da328a0U, 0xbe6648fc3e98c039U, 0xbdc9293cbd76a77cU, 0x3dea9920be98c772U,
  0xbe39cce73de32eb4U, 0xbe8ca88b3d762e88U, 0xbe05ed143e684ec1U, 0x3cc90fe0be2ae404U,
  0xbc22b4a03dd61a40U, 0xbf20e7853c526000U, 0xbd8437e6bdf1c952U, 0xbdd5a0443bfff773U,
  0xbf186ccebe0f11aeU, 0x3e7fcddabd48736eU, 0x3d3b30703e6fe2aeU, 0x3e7d2a73bf11c014U,
  0x3e9123b63e0fd0d8U, 0x3d996d4bbd869c9cU, 0xbd41e2f1bdc15b2cU, 0x3cff87f03ea78083U,
  0xbe616408bd55d83cU, 0xbe7d2fd13d9dcb72U, 0xbdad80d93c642b6bU, 0xbe47c6e63d6983eeU,
  0xbd808591be9aee31U, 0x3e46333c3e5059b0U, 0x3d7868203e812545U, 0xbe696bf23ba8055fU,
  0xbe412a993e021712U, 0x3e1118a83e36cfafU, 0x3e442804bdc064ecU, 0x3e1e4d8c3e92a5f4U,
  0x3cc3d958bdc5e054U, 0x3c4cccfc3e856b1dU, 0xbe9acecdbe77b1d3U, 0x3e1bfb0b3dd9d3deU,
  0x3e8ae7a13daccab4U, 0x3e805c3b3e1e9149U, 0x3e67f6b9beedc8bbU, 0xbe05e1603e1b1e9eU,
  0xbe96ae39be39f4e5U, 0x3e392d70be1f285aU, 0xbd6cfbff3d81d66eU, 0xbe32375d3db619b7U,
  0x3e60ad74bd0d7409U, 0xbd87994a3e3689eeU, 0x3e4e691abd73e56cU, 0x3d7a24ee3e52a409U,
  0x3e97988abd267f48U, 0x3e1a08323e49097eU, 0xbddc84eabd1f8004U, 0xbb2352cabe096285U,
  0xbe2bb85d3e04eba2U, 0xbe68d42e3e36fe90U, 0xbe5ad56cbdf88b4cU, 0x3d2ae5203e32c69fU,
  0x3c405ad2be814ed3U, 0xbdf48f42be18cfd3U, 0x3e4959aabe33e8eaU, 0xbd5c45f4bda03996U,
  0x3c8b2f9a3e0f8ac4U, 0xbc2aff80bea406a2U, 0xbe1bdcdebdd61a48U, 0xbcf2fbc0be27be50U,
  0xbe416ebbbe25a130U, 0xbea7523a3e315fe0U, 0x3dbf8d20bda11744U, 0x3c43a1753e229352U,
  0x3d0764a8bdc6223aU, 0x3e98e327be7b30b8U, 0xbe28ab3ebe215927U, 0x3e6446ee3e632804U,
  0x3e76a5513e5e74dbU, 0xbe503faabe82b8bcU, 0xbe8c321b3e940bbdU, 0xbe463c393df46a44U,
  0x3ae29013bd1aecb0U, 0xbe3f9150be9bf12bU, 0xbd2c4ac0bd5e24d0U, 0xbe2f257e3dccd165U,
  0xbe33a2c93d7c1110U, 0xbe78c900be135b72U, 0x3e3e37d0be6c6cebU, 0xbe915cc63e8224f7U,
  0xbe9379053e1e4bbcU, 0x3e1e45eebd43ac47U, 0xbd924b483e8fe82bU, 0xbcf447f0be23d259U,
  0x3e7ab6acbdbe7dfeU, 0x3e69e5133e87470dU, 0x3e21afcebe8513fcU, 0xbd3a967abdca61ecU,
  0xbe8a1914be6cc21eU, 0xbe6d2342be46679eU, 0x3e7e8e32be1fba37U, 0x3d7f7590be3fd858U,
  0xbea6452f3e9a1de5U, 0xbcbb7d86bd0fe3a8U, 0xbd5bb41bbe6ba3dbU, 0x3d4ffce6bd355010U,
  0x3d7febc03e125cf6U, 0xbdb2edecbde4edb8U, 0xbd193bf2bed51154U, 0xbe0401ae3e96b887U,
  0x3dffbaaa3d4c41e9U, 0x3e041577bc929b7bU, 0x3e9738673e8d4d1cU, 0x3e997555be5b7b95U,
  0x3ea810d73dd8d252U, 0xbe095be2bdb1a11dU, 0x3e6fdccebe7a1098U, 0xbe1e53393d803415U,
  0x3e8299c93e886929U, 0x3e4d4d033d61ba10U, 0x3e8fa67b3e593972U, 0xbd90b563be88d64aU,
  0x3e8b27e1beab620cU, 0xbced84c03e2b1423U, 0xbe31ee63be0fe7cfU, 0xbdd2c96cbe928ba0U,
  0xbe006ca33e769600U, 0x3e137a4c3e8b2e57U, 0x3e8aa6613d519df8U, 0x3d56b4d3bd6e3e9cU,
  0xbea85baf3e97e10bU, 0xbe68c0343e9587f7U, 0x3e72259ebc4acbc0U, 0xbdc80a423ca4e7f9U,
  0xbc271ccdbe979c74U, 0xbe3689bb3e8600a3U, 0xbe9c7613bb351f8eU, 0x3e319796bdae5c68U,
  0x3e86da7b3e813081U, 0x3e15bbc2bca94eacU, 0x3e96d581be807256U, 0xbdb6e30ebe26a2f0U,
  0xbc5cc202bca0fb5aU, 0x3e7b0e703ddaccd7U, 0x3e7d6bf63e88c8f5U, 0xbe8195693bb6ea51U,
  0x3d4df40cbd054f88U, 0xbe664387bf1e0ebeU, 0x3c8696d03e143f04U, 0xbdee9b803e73fe47U,
  0xbf093c503e059168U, 0xbeae3b36bdb6ce94U, 0xbecaa4ed3d02be74U, 0xbaf0c2ea3d9a6f08U,
  0x3d0904503e271879U, 0x3e2783023e47ea60U, 0xbdb0a606be89a9bdU, 0xbe891305be6f42feU,
  0x3e54e5153d57d734U, 0xbb677b16bd4a17adU, 0x3e5b26f53e96d792U, 0x3e44db45be016b50U,
  0x3e2c3bc4be98dca6U, 0x3e9aa35dbe563a9aU, 0xbe80d73e3e8696d5U, 0xbe0f4ca7bd563620U,
  0xbef2292e3d0dda88U, 0xbf0193f3be8e3f8bU, 0xbe915cf83dfd46c3U, 0x3e0c128c3e91a11eU,
  0xbdd3ec243e0ec29cU, 0x3e495ebebe3d3e88U, 0x3da7ea37bf246968U, 0x3db044583dd11aa8U,
  0xbeb071e9be62419aU, 0xbdfa7e2b3df05d1fU, 0xbe96f97a3df6b324U, 0xbe0217d6bea30c6bU,
  0x3d08d5503e32195dU, 0xbe6835b63e853d86U, 0x3e11e31a3dab4d68U, 0xbcced279bded9977U,
  0x3ed4ea2cbe83f5a7U, 0x3d788ee2bd28ca00U, 0x3e5e3863be789f55U, 0x3e4c5ab3bf04f1d6U,
  0x3e0795f0bd7897eeU, 0xbe07420c3b311608U, 0x3e9dc35d3dfa2545U, 0x3e489a7a3dbf6877U,
  0xbe8a1fdfbe987185U, 0xbe0a06b43e59edcfU, 0x3e8c4aaa3e33624fU, 0x3e685aee3e48ff32U,
  0xbea205d1be6679d8U, 0x3e7addc6beb4c270U, 0xbde697363e8221a7U, 0xbe751b78bc937540U,
  0x3e140e4bbe9175acU, 0xbe401b8e3e1eab3eU, 0x3e0e517dbdd634d5U, 0x3e52a8963ea669afU,
  0x3e7936b6beacafeaU, 0x3cb38bf0bd8cf07dU, 0x3da8b9453ed4af71U, 0x3e6893223d3d2305U,
  0xbe312588becd29aaU, 0x3e110302bca29a93U, 0x3e6b2a133e3688e9U, 0xbe5e8941be20c80cU,
  0xbeac65a83e082b3aU, 0xbdc5c64e3e22891aU, 0xbdc1458e3dcfdf04U, 0xbdd469f43e2b7844U,
  0xbe09b0433e6a48b2U, 0xbd7a0cfdbe8693bdU, 0x3de21275be23eb4cU, 0x3e09453f3edb918fU,
  0x3e862227be3fc30aU, 0x3d491170be802a14U, 0x3e221e35bf12d2baU, 0x3e4b638e3eb4b801U,
  0xbddaf0cebe6b949aU, 0xbe305ac5bda7498dU, 0xbdea4fd5be844f3fU, 0x3de1bbae3c3c3d42U,
  0xbd56bcc73e1397e7U, 0x3d6dbec83e72e9c8U, 0xbb9041c0be1a0badU, 0x3dd4f347bddb1cb4U,
  0x3e51f8593e123d64U, 0x3eb06cc4bd924cf8U, 0x3e34620ebea4580cU, 0xbdf019dabec013b5U,
  0x3e0c3bb0be19d808U, 0x3e74c4a23e02573fU, 0xbb0003a1bf2d86fdU, 0x3e3e3ff4bea64815U,
  0xbea5264bbce970a2U, 0xbe1d9a1dbe8754e3U, 0x3e9523f73e4aed84U, 0x3dea9ac83e77fe56U,
  0x3e235205bea57a8fU, 0xbe476b8f3db21d4bU, 0xbe7da39d3cb0c960U, 0xbe42306e3d0c1bb6U,
  0x3dedabaa3e7d8f2eU, 0x3c8dff75bd4ae6a8U, 0x3e38fa0ebd0b46fdU, 0xbdbfd533bed8ce0bU,
  0xbdd0673abe902604U, 0xbdde35b0be0f550dU, 0x3deecf683e9a035dU, 0xbac24200be7a32b7U,
  0xbcaf89c0be36929aU, 0xbd4176b0bdf6deb6U, 0xbe9a5001baca8600U, 0x3d3c4fa83e66984aU,
  0xbe12e5d0be87eae8U, 0x3e8995adbe850db5U, 0xbd451428be8759cbU, 0xbceb96e03e990595U,
  0xbe38ba72bc9fd640U, 0xbe91cb11bd94dfd8U, 0xbe32561c3e2ee914U, 0xbe568a323e2d95baU,
  0xbc86640bbd07a881U, 0x3d51811d00000000U, 0xbdef316ebd0dd9bdU, 0xbd8f14aa00000000U,
  0xbbe87c6c3e2adf8bU, 0x3df19a5cbd591fd9U, 0x3e186cbdbbb76a78U, 0xbec51d35U,
  0xbd871e073d95c091U, 0xbce49c203e2852a6U, 0xbd01ac8ebd021178U, 0xbd018be33d4c4c15U,
  0xbeb26273bea06c85U, 0xbd920f623e5016feU, 0x3de6123b3e3df153U, 0x3e3d7fdaU,
  0x3c4296e13e2c07efU, 0x3e0efe833e6a1756U, 0xbe0a1affbe04e542U, 0xbe741b9bbd9b01e8U,
  0xbe5d9a793e135a4bU, 0x3db847303e5ed6eeU, 0x3ed440c53e82ed0cU, 0x3e8c4f893ed92542U,
  0x3d300dc5bee38184U, 0xbe1c9aa2bab6eb22U, 0xbe5f89acbe52192eU, 0xbe2a974fbb0b24c4U,
  0x3ee16db13e9bf4caU, 0x3e0da8e13ed536d0U, 0x3e6459863e8d3225U, 0x3d4d7130bdf67797U,
  0x3e5fb44fbe55f1b9U, 0xbe120b593e7ffddeU, 0xbe70b8f2be917a74U, 0xbdc5b25bbe4316f9U,
  0x3e3100013e987773U, 0xbda4d0a33d4d4c58U, 0x3e06876c3cdc691aU, 0xbd41cc083db388e5U,
  0xbc08b4febe889292U, 0x3dcd6341be271226U, 0x3e65eb473ca697d2U, 0x3e5ddf843eb1458bU,
  0xbf321669bd0f3eb3U, 0xbe26d021bef1d0deU, 0x3dd954d0bf0cd5b2U, 0xbe7f7b113b3b238dU,
  0x3da6c2913d54c2ddU, 0x3df06940be0616f6U, 0xbe0dd339be36751bU, 0xbe9009e3be13086cU,
  0xbe4ecb513daf9c31U, 0xbe5ec3693ea0e46dU, 0xbe6c3f493d48aad8U, 0xbddba87ebe7c8365U,
  0xbdfc60f5bd7d90b5U, 0xbe4ef4403eca02fdU, 0x3d986c743e022bc1U, 0xbea754573e3dea5cU,
  0xbf171b6fbe343b49U, 0xbe3f05b2be0a5c8dU, 0xbece96e2be7d595dU, 0x3e8fd9cf3e390ba5U,
  0xbe552845be69a708U, 0xbe7219ab3d6972d0U, 0xbe67c86abd41e1c8U, 0x3e6861f63c76b2e0U,
  0xbf1cf7f5bedffe4fU, 0xbc435d663cdf9b20U, 0xbccf44cebe9934e7U, 0xbe8e6e0cbe9a3ac4U,
  0xbc8573a83eab0a86U, 0xbda20d6cbe128210U, 0x3e9f4b073bac0f00U, 0x3da78df0be804265U,
  0xbe1799ddbd827178U, 0xbe09f2e3ba3973eaU, 0x3e9d0451bcf80451U, 0x3cbea1b0bcddd2eaU,
  0xbe90a338be37a53eU, 0xbdad59963e819c33U, 0xbe969bd33e935cedU, 0x3e6c37e5bea54775U,
  0x3d96b3463eb6ad56U, 0xbd1f65b9bdc80763U, 0x3eebdca43d8426dcU, 0xbe85e689bd75179bU,
  0x3c01da44bea11015U, 0xbe2b7aef3e7b84bbU, 0x3e00d51e3e8e96e9U, 0x3ca5e590be81d8dfU,
  0x3c5191c0be58ebdcU, 0x3eccb908be568ad9U, 0xbcaa2e2dbe53e677U, 0x3c88f3703e8ea2ccU,
  0xbea061863d841960U, 0x3e17ddbf3d2a0258U, 0x3e813a05bddcda25U, 0xbe2d84a0bdd44598U,
  0x3d4ccc003e53bd6bU, 0x3e81d41b3e6b9582U, 0xbdc9ac11bd97dbfcU, 0x3e31cfce3ea1bc8dU,
  0xbe9034dabe66d63dU, 0xbe8361143d869a15U, 0x3eb24c0f3dc54428U, 0x3e14d108be84c429U,
  0xbdd1c34c3e738f84U, 0xbea05075bdf03e85U, 0x3e80e68b3db79295U, 0x3e9db3f7be9c795aU,
  0xbe410865beb05746U, 0x3df545273eb2906fU, 0xbe0784b53e9362ddU, 0x3e6503473e81716bU,
  0xbe2a01e03e1060bbU, 0x3e1eb1a33d33eef0U, 0x3e5ab5b3be326d4eU, 0x3dfece543ebb2cc2U,
  0xbe9032c93e45144dU, 0xbd1ddef73e2ea80aU, 0x3e5d1fd63e04a693U, 0x3e37e8b83e2bdf46U,
  0x3ef62a3b3ec0489fU, 0xbe77dfc4be738dc5U, 0x3d2fbf6f3eb3797fU, 0xbe9fee93bdaaceadU,
  0xbee51bfb3e7be127U, 0x3cee7343be6bf85aU, 0x3e222782be97786eU, 0x3caf84223e18bfc6U,
  0xbeb19c573eae427dU, 0xbdbfdec6be66f9dbU, 0x3e31a0d4be8349efU, 0x3da17050bf81848fU,
  0xbe7dc1d3bc9d08a6U, 0xbdadfe10bc2a67c4U, 0xbcb526303cd74490U, 0x3e87bd133e825569U,
  0x3e1e2348beb7a426U, 0xbc0a9c153df44bcaU, 0x3e9c2b12beab4781U, 0x3ea93127be88a316U,
  0xbe21d4d4bdd83c96U, 0x3d5f27af3ccf2c60U, 0x3e3b33dfbe739472U, 0xbdaee54cbdc16bb0U,
  0x3e5e92303eacdd71U, 0x3c6c451abe97caf7U, 0x3eb22b8e3d832578U, 0x3e557d8abf8f9a6dU,
  0x3e690470beff996fU, 0xbe64b79a3e8557a5U, 0xbe213370bd773cf0U, 0xbe1e77ccbea22382U,
  0xbeb005023d8226d6U, 0xbe22e0143edd440aU, 0x3ef6d91ebe25e8e5U, 0xbdad1e0c3e80187dU,
  0xbd16f21a3e446e41U, 0xbefd7c853e9b0a99U, 0x3e916af4be92d88eU, 0xbeb55694be72b113U,
  0x3cead792be10a092U, 0x3c48c0d6bdf45c3cU, 0x3e2d88db3e2a6f2aU, 0xbc8c0d80be9e995fU,
  0xbe7ee7343ea8d8f2U, 0xbe9ac2d73da4ffffU, 0x3e71b7ae3ccdeb80U, 0xbe9eb2e3bea9ac79U,
  0x3e04b345bea42a8aU, 0xbe71ee523db97029U, 0xbec41e313eac1947U, 0xbe3ae305bea7852eU,
  0xbe04781dbe76ff68U, 0xbe876f273d855280U, 0x3e0694f63e1ba9f7U, 0x3e9ef6713ceda060U,
  0x3e28e3febe31123fU, 0xbda0459c3c61890dU, 0xbf01e989be208565U, 0xbade27003d9c8466U,
  0x3eae7efcbe8790bcU, 0xbd62bd03be8575cdU, 0xbe9ed0c23e90eaedU, 0x3ddd2a3a3eae46b0U,
  0xbf04e5e4bc99da62U, 0x3e9115cebd08a14aU, 0x3d8e11fbbe8c2457U, 0x3d5501b03ebae63aU,
  0x3e6d1dac3e8b056bU, 0xbd8a82cc3eaed6c7U, 0xbe26e418bd9fd0dcU, 0xbcdf4b513d265b60U,
  0xbebb6713beba9f89U, 0xbde0a03cbe014d00U, 0x3d6617b1bdd4ddacU, 0x3dde4e34bec62d05U,
  0x3e6bd0183e0a4b5bU, 0xbdf4e0a43d7a64edU, 0x3e746a1e3e58a9a6U, 0xbe347a45bef174c7U,
  0x3e9b1a92bd622efaU, 0x3e34e0113e853a0eU, 0x3e73bd3b3ed5e2a5U, 0x3e187c12bea831beU,
  0x3d719c2f3dcb63c0U, 0xbcff15793d7feb38U, 0xbe8ef89dbd9e85e7U, 0x3e77bd7b3eb3012fU,
  0x3d8a4043be0274f8U, 0x3e6e7e703ddb4755U, 0xbe41d1a4bc1d38b4U, 0xbe636ceb3df267e6U,
  0xbe87817bbe5d6e2aU, 0x3e2aa1d13db72dacU, 0x3e9ede513e8c94b1U, 0xbd3a43243e5cd0c6U,
  0x3e9cf0413e8bddf3U, 0xbdc72bbf3e5b4abcU, 0xbc98cfc93da279b0U, 0xbe927db2be51a2e1U,
  0x3e0061f63e6eb3d5U, 0x3e60326dbdb2d19cU, 0xbe9025983cd3dc4cU, 0xbef48b7b3e8c5719U,
  0xbe9ff22a3e09625fU, 0x3e5467843da654deU, 0x3de76c40bdfea981U, 0xbde9e72cbeebbf19U,
  0xbe89d41bbe494fb8U, 0x3ea3fe65be94939cU, 0x3e6903eebe260bfdU, 0xbde1a25c3e73ec87U,
  0xbde5ca0bbe8f2864U, 0x3e832a0cbdfbf04cU, 0x3e45e671be8cd103U, 0xbe8064ad3e8c2d13U,
  0xbe6cd4483ebf7cf4U, 0x3e6ec9f7beb2cf96U, 0xbe22212d3da64ee2U, 0x3e861745bcea5b30U,
  0xbe7026c93ecaf614U, 0x3e3b11f13d81a51cU, 0xbee78d933d7c46a8U, 0xbe01e1eebdc2e30cU,
  0xbdf647fbbe80b541U, 0xbe5f0d353ebe919cU, 0x3e1271743e87f48bU, 0x3e5213023e6eefe7U,
  0xbee7aeb4bead7482U, 0x3da99bf1beea00c3U, 0xbcaeecd4be87b579U, 0xbe6ddcecbe092529U,
  0xbd3f9154be11920dU, 0xbe9e8cf13dc0e6b4U, 0xbe502a1b3d7f9813U, 0xbe3377cc3d5878a8U,
  0x3cf5649a3e3a31ebU, 0xbe8785903e885485U, 0xbe35b3213e768a2bU, 0x3e3c4b8a3d5f0222U,
  0xbe03314cbdf2e560U, 0x3e8452133eac3471U, 0x3c3fe4b93e111c66U, 0xbec1fdb43e782807U,
  0xbf1eeb7c3e37624dU, 0xbe0c17bebee293e4U, 0xbda0a5cbbe8a7040U, 0x3c3e39603c019a32U,
  0x3e0d381abe243022U, 0x3d82c1053e1cedd7U, 0xbd0842703ddc240fU, 0x3dbc21c2be2efb07U,
  0xbafe61903dc1c3b5U, 0x3d067be43e0e3676U, 0x3d4a3b7cbe8e74d2U, 0x3e34aa663e2e4d4eU,
  0xbea85d213f158204U, 0xbdda210ebea6f578U, 0xbea72e013e8e21fcU, 0x3ea959183e845e5aU,
  0xbdb0ca263f14935dU, 0xbf144783be4a5fdcU, 0x3e8ade0e3e15b6f1U, 0xbf026670bea8c013U,
  0xbe290dbeU,
};


ai_handle g_network_weights_table[1 + 2] = {
  AI_HANDLE_PTR(AI_MAGIC_MARKER),
  AI_HANDLE_PTR(s_network_weights_array_u64),
  AI_HANDLE_PTR(AI_MAGIC_MARKER),
};

